<unk>	0
<s>	0
</s>	0
<pad>	0
<bos>	0
<eos>	0
▁t	-0
ng	-1
▁c	-2
▁đ	-3
nh	-4
▁v	-5
▁th	-6
▁l	-7
▁h	-8
▁m	-9
▁b	-10
▁ch	-11
▁n	-12
▁tr	-13
▁k	-14
▁nh	-15
▁s	-16
▁ng	-17
▁g	-18
▁kh	-19
▁p	-20
▁d	-21
▁ph	-22
▁là	-23
ông	-24
▁cá	-25
iệ	-26
▁q	-27
▁qu	-28
▁gi	-29
▁và	-30
ên	-31
▁r	-32
ườ	-33
▁có	-34
▁x	-35
ới	-36
▁củ	-37
▁của	-38
iế	-39
ình	-40
ột	-41
▁các	-42
▁một	-43
ại	-44
ượ	-45
ười	-46
ai	-47
ất	-48
ân	-49
ươ	-50
uy	-51
ong	-52
▁không	-53
ày	-54
ăm	-55
iề	-56
ược	-57
▁ngh	-58
ch	-59
▁được	-60
an	-61
anh	-62
▁trong	-63
ây	-64
▁người	-65
▁cho	-66
▁như	-67
ôi	-68
ững	-69
▁với	-70
▁những	-71
ay	-72
iên	-73
▁thì	-74
ướ	-75
inh	-76
ần	-77
▁việ	-78
iều	-79
iể	-80
ương	-81
▁hai	-82
▁cái	-83
▁đã	-84
▁mà	-85
em	-86
ải	-87
▁này	-88
ạn	-89
▁nó	-90
ao	-91
ành	-92
▁đó	-93
ước	-94
ường	-95
ang	-96
▁để	-97
▁họ	-98
am	-99
ến	-100
▁chí	-101
▁em	-102
iện	-103
ũng	-104
▁ho	-105
úng	-106
ời	-107
ực	-108
▁năm	-109
▁cũng	-110
▁ở	-111
ung	-112
ấy	-113
ức	-114
▁độ	-115
àn	-116
ết	-117
ác	-118
ầu	-119
ống	-120
▁về	-121
▁công	-122
ốc	-123
▁đến	-124
▁tôi	-125
▁ra	-126
▁sẽ	-127
▁bạn	-128
ơn	-129
▁cả	-130
ài	-131
▁từ	-132
▁tiế	-133
ối	-134
au	-135
in	-136
ận	-137
ản	-138
âu	-139
ùng	-140
ồng	-141
▁làm	-142
ật	-143
▁mình	-144
át	-145
▁thể	-146
▁khi	-147
àng	-148
áng	-149
▁chúng	-150
▁anh	-151
▁nhiều	-152
ươi	-153
ào	-154
on	-155
▁đi	-156
ội	-157
▁mươi	-158
▁lại	-159
ồi	-160
ốn	-161
▁phải	-162
▁quy	-163
ăn	-164
▁ta	-165
▁tại	-166
▁việt	-167
▁ba	-168
ăng	-169
án	-170
▁nam	-171
eo	-172
ằng	-173
▁vào	-174
▁thu	-175
ưa	-176
▁trăm	-177
▁mười	-178
▁ông	-179
▁số	-180
ền	-181
▁nhà	-182
▁đây	-183
iết	-184
▁quốc	-185
▁đị	-186
êu	-187
▁thành	-188
▁sự	-189
▁rất	-190
úc	-191
▁con	-192
▁thế	-193
▁ngày	-194
ục	-195
▁việc	-196
▁nói	-197
▁bị	-198
ập	-199
ộc	-200
▁trên	-201
iến	-202
▁học	-203
▁nước	-204
òn	-205
▁chính	-206
▁đầu	-207
▁bả	-208
▁dân	-209
áo	-210
▁nhân	-211
▁trung	-212
ôn	-213
▁nhưng	-214
▁động	-215
▁theo	-216
ích	-217
ơi	-218
▁hiện	-219
▁còn	-220
ắc	-221
▁chỉ	-222
▁sau	-223
ái	-224
▁cu	-225
ấn	-226
ữa	-227
▁đồng	-228
▁hơn	-229
▁quan	-230
iểm	-231
iệu	-232
▁rồi	-233
▁do	-234
ổi	-235
▁lu	-236
▁sá	-237
▁gia	-238
▁y	-239
▁đề	-240
▁trường	-241
ám	-242
▁sinh	-243
▁giờ	-244
iển	-245
▁xu	-246
▁chuy	-247
áp	-248
ạt	-249
▁trình	-250
▁đang	-251
▁bộ	-252
▁vị	-253
▁hội	-254
ẫn	-255
▁tổ	-256
▁vì	-257
ạo	-258
▁mới	-259
ượng	-260
òng	-261
▁tháng	-262
▁thời	-263
▁nay	-264
▁nào	-265
▁biết	-266
âm	-267
ìn	-268
▁điều	-269
▁thông	-270
ấp	-271
▁thực	-272
▁mu	-273
▁nguy	-274
ặc	-275
▁nhất	-276
ắt	-277
▁thấy	-278
iền	-279
▁tư	-280
▁phần	-281
▁cùng	-282
▁cơ	-283
iệp	-284
▁qua	-285
ậy	-286
ịch	-287
ặt	-288
▁phát	-289
ễn	-290
▁tin	-291
▁định	-292
▁dự	-293
▁gì	-294
ện	-295
oàn	-296
▁hàng	-297
▁ngo	-298
▁hình	-299
ánh	-300
▁viên	-301
▁tuy	-302
iểu	-303
▁lo	-304
▁tu	-305
▁trước	-306
ởng	-307
▁tới	-308
ảng	-309
ứng	-310
▁chủ	-311
ốt	-312
▁lên	-313
ọi	-314
ếu	-315
▁cuộc	-316
▁hợ	-317
▁tiếp	-318
▁di	-319
▁rằng	-320
ỏi	-321
▁điểm	-322
▁hợp	-323
▁nên	-324
ọng	-325
▁cao	-326
▁vi	-327
▁dụ	-328
▁kho	-329
êm	-330
▁tự	-331
▁sản	-332
▁ti	-333
▁đối	-334
▁vậy	-335
iệt	-336
▁lý	-337
ỉnh	-338
▁bốn	-339
▁khác	-340
▁lớ	-341
▁đại	-342
▁a	-343
▁sáu	-344
▁hay	-345
ừa	-346
▁tế	-347
▁cách	-348
ôm	-349
ách	-350
▁hành	-351
▁tình	-352
▁nhận	-353
▁ý	-354
▁nghĩ	-355
▁chị	-356
▁mỹ	-357
▁chín	-358
▁quyền	-359
▁nghiệp	-360
▁chức	-361
▁mạ	-362
▁tám	-363
ét	-364
▁vụ	-365
iệm	-366
▁an	-367
▁chi	-368
▁quý	-369
ính	-370
▁bảo	-371
▁kinh	-372
▁tỉnh	-373
en	-374
▁cứ	-375
ưởng	-376
▁tác	-377
▁dụng	-378
▁thị	-379
▁thứ	-380
▁quân	-381
▁câu	-382
ấu	-383
▁cô	-384
▁nghìn	-385
▁ô	-386
▁chương	-387
▁vẫn	-388
▁bảy	-389
▁phương	-390
▁xuất	-391
▁kỳ	-392
▁hôm	-393
ừng	-394
▁lúc	-395
▁thủ	-396
▁sao	-397
▁muốn	-398
▁thi	-399
▁nếu	-400
▁giá	-401
ướng	-402
▁khu	-403
▁giới	-404
▁xin	-405
▁cảm	-406
▁kết	-407
▁nữa	-408
▁chưa	-409
▁huy	-410
▁hoa	-411
▁bình	-412
ồn	-413
▁đường	-414
▁bản	-415
▁giả	-416
▁triển	-417
▁tâm	-418
▁thường	-419
▁toàn	-420
▁bằng	-421
▁lượng	-422
▁sử	-423
▁báo	-424
óa	-425
ệnh	-426
▁lực	-427
ởi	-428
▁mặt	-429
▁phẩ	-430
▁nhau	-431
▁pháp	-432
▁hỏi	-433
ỗi	-434
▁quá	-435
▁địa	-436
▁lớn	-437
▁giải	-438
▁tập	-439
▁tiên	-440
▁ban	-441
▁án	-442
út	-443
▁xã	-444
▁cần	-445
▁văn	-446
▁à	-447
▁nhiên	-448
▁truy	-449
ộng	-450
▁thống	-451
▁trọng	-452
ắn	-453
▁tiền	-454
▁liên	-455
ạm	-456
▁hu	-457
▁tăng	-458
▁yêu	-459
▁gian	-460
▁năng	-461
ắng	-462
▁ăn	-463
▁chiến	-464
▁cấp	-465
ảnh	-466
▁sống	-467
▁bắt	-468
▁bà	-469
ọn	-470
▁phòng	-471
ảo	-472
▁tiếng	-473
▁lần	-474
▁giáo	-475
▁thương	-476
▁mẹ	-477
▁ạ	-478
▁quyết	-479
▁nội	-480
▁bu	-481
▁bên	-482
▁thôi	-483
▁á	-484
▁tạo	-485
▁ngoài	-486
▁đúng	-487
▁sĩ	-488
▁bây	-489
▁ủ	-490
▁phí	-491
▁lời	-492
▁tổng	-493
▁hết	-494
▁vấn	-495
▁trị	-496
▁luôn	-497
▁minh	-498
▁trở	-499
áy	-500
▁hóa	-501
ặp	-502
óng	-503
▁dạ	-504
▁đình	-505
▁phố	-506
▁đất	-507
▁thanh	-508
ạch	-509
▁ảnh	-510
▁ki	-511
ắm	-512
▁ai	-513
▁đông	-514
▁truyền	-515
▁thức	-516
ìm	-517
▁phi	-518
úp	-519
▁chu	-520
▁khó	-521
ưu	-522
▁tham	-523
▁đưa	-524
ợi	-525
▁cầu	-526
▁xe	-527
▁hoạt	-528
▁tính	-529
▁tiêu	-530
▁quả	-531
▁vừa	-532
▁diễn	-533
ầm	-534
▁bao	-535
▁bệnh	-536
òa	-537
▁tìm	-538
▁vực	-539
▁gọi	-540
▁nông	-541
▁sáng	-542
▁tốt	-543
▁giao	-544
▁hệ	-545
▁hà	-546
ển	-547
ạc	-548
ẩn	-549
▁biển	-550
▁sở	-551
▁chuyện	-552
ít	-553
▁tất	-554
ẳng	-555
▁đặc	-556
▁lã	-557
▁tục	-558
▁ngàn	-559
▁đấy	-560
▁thích	-561
▁hiệu	-562
▁chất	-563
▁doanh	-564
▁tài	-565
▁biệt	-566
ọc	-567
▁đều	-568
▁hã	-569
▁tiến	-570
▁nơi	-571
▁phẩm	-572
▁đô	-573
ậu	-574
▁ờ	-575
▁cảnh	-576
▁vu	-577
▁mọi	-578
▁gần	-579
▁triệu	-580
▁gặp	-581
ép	-582
▁ca	-583
ấm	-584
▁đạo	-585
▁giúp	-586
▁nguyên	-587
▁dư	-588
▁xem	-589
▁đánh	-590
▁cử	-591
▁thân	-592
▁thêm	-593
▁mạnh	-594
▁vật	-595
▁đổi	-596
▁chiế	-597
▁ấy	-598
▁mỗi	-599
▁du	-600
▁đâu	-601
▁khách	-602
▁nghệ	-603
âng	-604
▁hoặc	-605
▁trang	-606
▁chế	-607
▁mang	-608
▁nguyễn	-609
▁điện	-610
ầy	-611
▁luật	-612
▁tích	-613
▁bố	-614
▁kiến	-615
▁hộ	-616
▁giống	-617
▁tranh	-618
▁loại	-619
▁trả	-620
▁xây	-621
▁so	-622
▁trẻ	-623
▁bất	-624
▁tho	-625
▁huế	-626
▁khai	-627
▁nghị	-628
▁lịch	-629
▁bởi	-630
▁tay	-631
▁sách	-632
▁bắc	-633
óc	-634
ằm	-635
▁biểu	-636
▁dịch	-637
▁giữa	-638
ạnh	-639
▁bỏ	-640
ẹp	-641
▁trưởng	-642
▁đo	-643
▁ủy	-644
▁lập	-645
▁bán	-646
▁dựng	-647
▁bài	-648
▁hồ	-649
▁chung	-650
▁thái	-651
▁nhìn	-652
▁máy	-653
▁vệ	-654
▁ngay	-655
▁lăm	-656
▁đơn	-657
▁khoảng	-658
▁sát	-659
▁đoàn	-660
▁ứng	-661
▁nhỏ	-662
àu	-663
▁tra	-664
▁chọn	-665
ắp	-666
ặng	-667
▁chơi	-668
▁dùng	-669
▁thật	-670
▁cây	-671
▁mời	-672
▁hoàn	-673
ạng	-674
▁co	-675
▁đội	-676
▁chia	-677
▁cứu	-678
▁cộng	-679
▁hướng	-680
▁phạm	-681
▁nhiệm	-682
▁ri	-683
▁tử	-684
▁hãy	-685
▁ma	-686
▁la	-687
▁lợi	-688
▁ngoại	-689
▁u	-690
▁gh	-691
▁ngu	-692
▁vùng	-693
iếu	-694
▁nghĩa	-695
▁châu	-696
▁phong	-697
▁hòa	-698
▁cuối	-699
▁chứ	-700
▁tuổi	-701
▁thiết	-702
▁phủ	-703
▁thay	-704
▁thiên	-705
ảy	-706
▁hoàng	-707
▁tên	-708
▁sức	-709
▁tuần	-710
▁chú	-711
▁chào	-712
▁dẫn	-713
▁giữ	-714
▁từng	-715
▁hiểu	-716
uôi	-717
▁hồi	-718
▁chuyển	-719
▁đẹp	-720
▁kế	-721
▁nghe	-722
▁nhật	-723
▁nguồn	-724
▁gây	-725
ĩnh	-726
▁lấy	-727
▁mua	-728
▁diện	-729
▁thuộc	-730
▁tượng	-731
▁lưu	-732
▁phía	-733
▁phụ	-734
▁vô	-735
▁ngành	-736
▁trí	-737
▁tàu	-738
▁biến	-739
▁huyện	-740
▁trợ	-741
▁kiểm	-742
ùa	-743
▁đời	-744
▁si	-745
▁cố	-746
▁nhi	-747
▁xử	-748
▁bàn	-749
▁chuyên	-750
▁ty	-751
▁cáo	-752
▁lãnh	-753
▁vui	-754
▁nuôi	-755
▁to	-756
▁mất	-757
▁thư	-758
▁đài	-759
▁nhập	-760
▁dù	-761
▁cư	-762
▁tức	-763
▁phục	-764
▁bác	-765
áu	-766
▁hải	-767
▁nữ	-768
▁thuật	-769
▁i	-770
▁li	-771
▁su	-772
▁giảm	-773
▁mục	-774
▁tỷ	-775
▁đặt	-776
▁mức	-777
▁viện	-778
▁sư	-779
▁duy	-780
▁ít	-781
▁đạt	-782
▁tinh	-783
▁áp	-784
▁kiện	-785
▁chồng	-786
óm	-787
▁chắc	-788
▁càng	-789
▁chuẩn	-790
▁tiết	-791
▁dài	-792
▁nghi	-793
▁khí	-794
▁gà	-795
ệt	-796
▁o	-797
▁xuống	-798
õi	-799
▁mạng	-800
▁chết	-801
▁liệu	-802
êng	-803
▁quản	-804
▁dương	-805
▁tương	-806
▁ây	-807
▁cổ	-808
▁thừa	-809
▁rõ	-810
▁lắm	-811
▁nhớ	-812
ãi	-813
èo	-814
▁gó	-815
▁luận	-816
▁chống	-817
ảm	-818
▁vũ	-819
▁dành	-820
▁đảng	-821
▁khá	-822
▁mở	-823
▁mô	-824
▁khiến	-825
▁xác	-826
▁phân	-827
▁ký	-828
ưng	-829
▁sang	-830
▁hoạch	-831
▁dõi	-832
▁tuyên	-833
▁yếu	-834
▁hậu	-835
▁dung	-836
▁đa	-837
▁triều	-838
▁dễ	-839
▁bay	-840
▁kể	-841
▁hương	-842
▁nhanh	-843
▁tây	-844
▁lòng	-845
▁tướng	-846
▁đáng	-847
▁hưởng	-848
▁trời	-849
▁nổi	-850
▁vọng	-851
▁đấu	-852
▁nghiệm	-853
ữu	-854
▁xa	-855
▁tấn	-856
▁đủ	-857
▁mấy	-858
▁đức	-859
▁khoa	-860
▁chiếc	-861
▁vợ	-862
▁hữu	-863
▁vận	-864
▁linh	-865
▁nhóm	-866
▁thí	-867
▁thần	-868
▁hạn	-869
▁ơi	-870
▁môi	-871
ón	-872
▁tưởng	-873
▁kỹ	-874
▁sơn	-875
▁đóng	-876
▁ơn	-877
▁lâu	-878
▁trái	-879
ứa	-880
▁trạng	-881
▁thuận	-882
▁dưới	-883
▁chứng	-884
▁bé	-885
▁lớp	-886
▁màu	-887
▁khán	-888
▁trách	-889
ịp	-890
▁chấp	-891
▁lễ	-892
▁danh	-893
▁đứng	-894
▁mong	-895
▁mắt	-896
▁cụ	-897
▁thủy	-898
▁kê	-899
▁đồ	-900
ậm	-901
▁tối	-902
▁hát	-903
▁coi	-904
ẩy	-905
▁cửa	-906
▁phản	-907
ựa	-908
▁ni	-909
▁gái	-910
▁khả	-911
▁sa	-912
▁trực	-913
▁chân	-914
▁tịch	-915
▁hỗ	-916
▁sai	-917
▁đôi	-918
▁miền	-919
▁ninh	-920
ửi	-921
iếm	-922
▁nạn	-923
▁bước	-924
ạy	-925
▁vê	-926
▁ké	-927
▁dục	-928
▁đảm	-929
▁đảo	-930
▁khăn	-931
▁khởi	-932
▁phóng	-933
▁góp	-934
ượt	-935
▁chiều	-936
▁xảy	-937
▁độc	-938
▁trồng	-939
▁cung	-940
▁xong	-941
▁lao	-942
ỡng	-943
▁phó	-944
▁cạnh	-945
▁ngọc	-946
▁sắc	-947
▁phẩy	-948
▁thảo	-949
▁đoạn	-950
ẩu	-951
▁lê	-952
▁mi	-953
▁sẻ	-954
▁chữ	-955
▁thưa	-956
▁tố	-957
▁cực	-958
▁lai	-959
▁na	-960
▁tí	-961
▁mặc	-962
▁đào	-963
▁buổi	-964
▁lô	-965
▁viết	-966
▁hơi	-967
▁thiếu	-968
▁trò	-969
▁đàn	-970
▁vâng	-971
uyên	-972
▁trai	-973
▁tù	-974
▁gửi	-975
▁mừng	-976
▁hy	-977
▁nhạc	-978
▁nhằm	-979
úi	-980
iềm	-981
▁vòng	-982
▁quay	-983
▁thiện	-984
▁nghiên	-985
▁nghề	-986
▁lan	-987
▁nằm	-988
▁rộng	-989
ẫu	-990
▁xét	-991
ửa	-992
▁kỷ	-993
▁cam	-994
▁phá	-995
▁thầy	-996
▁hông	-997
▁phim	-998
▁hồng	-999
▁xi	-1000
▁đà	-1001
▁quảng	-1002
▁ngân	-1003
▁món	-1004
▁phổ	-1005
▁đáp	-1006
▁sông	-1007
▁chạy	-1008
▁giám	-1009
▁bi	-1010
▁đăng	-1011
▁mai	-1012
▁nâng	-1013
▁mùa	-1014
▁khẩu	-1015
▁riêng	-1016
▁hạ	-1017
▁trần	-1018
▁gồ	-1019
▁cháu	-1020
▁chịu	-1021
▁phú	-1022
▁cường	-1023
▁biên	-1024
▁ghi	-1025
▁chúc	-1026
▁thử	-1027
▁vương	-1028
ếp	-1029
▁lĩnh	-1030
▁lệ	-1031
▁chấm	-1032
▁bờ	-1033
▁tôn	-1034
▁vàng	-1035
ớt	-1036
▁long	-1037
▁đừng	-1038
▁âm	-1039
▁kêu	-1040
▁phép	-1041
▁thú	-1042
▁đầy	-1043
▁đón	-1044
▁phúc	-1045
▁tỏ	-1046
▁vài	-1047
▁chẳng	-1048
▁lợ	-1049
▁thăm	-1050
ẩm	-1051
▁chỗ	-1052
▁kính	-1053
▁trận	-1054
▁đu	-1055
▁đẩy	-1056
▁thoại	-1057
▁xuân	-1058
▁thúc	-1059
▁vẻ	-1060
▁thôn	-1061
▁lợn	-1062
▁hiệp	-1063
▁lương	-1064
▁bí	-1065
▁môn	-1066
▁vốn	-1067
èn	-1068
▁hại	-1069
▁thơ	-1070
▁quen	-1071
▁ấn	-1072
▁sơ	-1073
▁sâu	-1074
ổng	-1075
▁sân	-1076
▁cải	-1077
▁đêm	-1078
▁xanh	-1079
▁mưa	-1080
▁vai	-1081
▁ích	-1082
▁kim	-1083
▁âu	-1084
▁tòa	-1085
ẹn	-1086
▁gồm	-1087
▁ngôi	-1088
▁lựa	-1089
▁nhờ	-1090
ớm	-1091
▁yên	-1092
▁trao	-1093
▁thuốc	-1094
▁nhu	-1095
▁binh	-1096
▁thượng	-1097
ạp	-1098
▁cờ	-1099
▁dầu	-1100
▁nha	-1101
▁quê	-1102
▁xúc	-1103
▁nga	-1104
▁cán	-1105
▁mét	-1106
ặn	-1107
▁chút	-1108
▁khỏi	-1109
▁mốt	-1110
▁rừng	-1111
▁quang	-1112
▁khỏ	-1113
▁thắng	-1114
▁chờ	-1115
▁lí	-1116
▁dạy	-1117
▁hiểm	-1118
▁dậy	-1119
▁tội	-1120
▁khỏe	-1121
▁in	-1122
▁suy	-1123
▁tết	-1124
▁ngồi	-1125
▁pi	-1126
▁sớm	-1127
▁thuy	-1128
▁kiếm	-1129
▁lạc	-1130
▁nền	-1131
òi	-1132
▁tô	-1133
▁kia	-1134
▁sợ	-1135
▁tụ	-1136
▁ánh	-1137
▁mã	-1138
▁may	-1139
▁niệm	-1140
▁tê	-1141
▁căn	-1142
▁hạt	-1143
▁hầu	-1144
▁ước	-1145
▁chuyến	-1146
ót	-1147
▁go	-1148
▁ví	-1149
▁thẳng	-1150
▁cha	-1151
▁kéo	-1152
▁nặng	-1153
▁tuyển	-1154
▁uống	-1155
▁trương	-1156
▁làng	-1157
▁niên	-1158
▁mẫu	-1159
▁tín	-1160
er	-1161
▁đá	-1162
▁buộc	-1163
▁giang	-1164
▁gốc	-1165
▁bày	-1166
▁mối	-1167
▁phù	-1168
▁ngại	-1169
▁vượt	-1170
▁luy	-1171
▁thiệu	-1172
▁lộ	-1173
▁ổ	-1174
▁nhiêu	-1175
▁xuyên	-1176
▁mại	-1177
▁chắn	-1178
▁nghỉ	-1179
▁bức	-1180
▁sữa	-1181
▁đứa	-1182
▁sắp	-1183
▁tiểu	-1184
▁phút	-1185
▁phối	-1186
▁mê	-1187
▁hẹn	-1188
▁chăm	-1189
▁nóng	-1190
▁luyện	-1191
▁dòng	-1192
▁soát	-1193
▁nghèo	-1194
▁hả	-1195
▁lệnh	-1196
▁ủng	-1197
▁thịt	-1198
▁nghiêm	-1199
▁tầm	-1200
▁tộc	-1201
▁đau	-1202
▁bánh	-1203
▁thưởng	-1204
▁rơi	-1205
▁tai	-1206
▁bóng	-1207
ứt	-1208
▁lâm	-1209
ọt	-1210
▁ru	-1211
▁tải	-1212
▁bổ	-1213
▁vân	-1214
ầng	-1215
▁cập	-1216
▁dấu	-1217
▁giấy	-1218
ùi	-1219
▁e	-1220
▁ơ	-1221
▁lẽ	-1222
▁toán	-1223
ẵn	-1224
▁giết	-1225
▁hút	-1226
▁trì	-1227
▁giác	-1228
▁kiểu	-1229
▁đế	-1230
▁cầm	-1231
▁áo	-1232
▁quán	-1233
ỏa	-1234
▁da	-1235
▁ép	-1236
▁núi	-1237
▁khuy	-1238
▁song	-1239
▁họp	-1240
▁líp	-1241
▁hàn	-1242
▁tạm	-1243
▁hùng	-1244
▁tặng	-1245
ão	-1246
▁sẵn	-1247
▁tiện	-1248
▁chiếm	-1249
▁tránh	-1250
▁tuyến	-1251
▁ga	-1252
▁trà	-1253
▁bang	-1254
▁nối	-1255
▁kích	-1256
▁suất	-1257
▁đích	-1258
▁thiệt	-1259
▁lá	-1260
▁đọc	-1261
▁cục	-1262
▁cháy	-1263
▁nhiệt	-1264
▁bê	-1265
▁ổn	-1266
▁đỏ	-1267
▁lẻ	-1268
▁hạnh	-1269
▁tốc	-1270
▁kênh	-1271
▁niềm	-1272
▁thất	-1273
▁quanh	-1274
▁thụ	-1275
▁tân	-1276
▁mùng	-1277
▁tuyệt	-1278
▁chợ	-1279
▁dịp	-1280
▁tái	-1281
▁mơ	-1282
▁sứ	-1283
▁bầu	-1284
▁loài	-1285
▁nhiễ	-1286
▁tường	-1287
úa	-1288
▁xê	-1289
▁trắng	-1290
ỏng	-1291
▁mày	-1292
▁gắng	-1293
ãn	-1294
▁kí	-1295
▁rút	-1296
▁xếp	-1297
▁ngăn	-1298
▁mắc	-1299
▁tắc	-1300
▁biện	-1301
▁lắng	-1302
▁đốc	-1303
▁khắc	-1304
▁lư	-1305
▁chữa	-1306
▁thấp	-1307
▁ngủ	-1308
▁ngữ	-1309
▁phê	-1310
▁cánh	-1311
▁khám	-1312
▁sóng	-1313
▁cười	-1314
▁giai	-1315
▁ngư	-1316
▁chục	-1317
▁nỗ	-1318
▁thác	-1319
▁tơ	-1320
▁vinh	-1321
▁dưỡng	-1322
▁sờ	-1323
▁sạch	-1324
▁ương	-1325
▁ro	-1326
▁ét	-1327
▁bữa	-1328
▁đợi	-1329
▁pin	-1330
▁xấu	-1331
▁quần	-1332
▁thậm	-1333
▁quà	-1334
▁loan	-1335
▁cà	-1336
▁tú	-1337
▁mật	-1338
▁tim	-1339
▁vua	-1340
▁đòi	-1341
▁dạng	-1342
▁đen	-1343
▁giây	-1344
▁tờ	-1345
▁nhé	-1346
▁phan	-1347
▁trưa	-1348
▁võ	-1349
▁cận	-1350
▁lỗi	-1351
▁buồn	-1352
▁siêu	-1353
▁trải	-1354
ủng	-1355
▁rô	-1356
▁gắn	-1357
▁nét	-1358
▁khẳng	-1359
▁nguyện	-1360
▁phiên	-1361
▁đê	-1362
▁tao	-1363
▁sóc	-1364
▁tri	-1365
▁khối	-1366
▁quên	-1367
▁trào	-1368
▁tầng	-1369
▁đổ	-1370
▁mái	-1371
▁khắp	-1372
▁nhiễm	-1373
▁gió	-1374
▁xưa	-1375
▁ngôn	-1376
▁nhắc	-1377
▁chỉnh	-1378
▁trại	-1379
▁khủng	-1380
▁máu	-1381
▁nắng	-1382
▁vững	-1383
al	-1384
▁lạ	-1385
▁tả	-1386
▁can	-1387
▁dần	-1388
▁gam	-1389
▁giành	-1390
ộn	-1391
▁đem	-1392
▁thuế	-1393
▁nè	-1394
▁lục	-1395
▁hằng	-1396
▁ràng	-1397
▁sàng	-1398
▁cắt	-1399
▁trụ	-1400
▁lông	-1401
▁ha	-1402
▁tồn	-1403
▁khúc	-1404
▁phạt	-1405
ừn	-1406
▁bè	-1407
▁cự	-1408
▁khảo	-1409
▁hi	-1410
▁cậu	-1411
▁nhá	-1412
▁cát	-1413
▁sửa	-1414
▁đỡ	-1415
▁suốt	-1416
▁chăn	-1417
▁ly	-1418
▁tận	-1419
▁cưới	-1420
▁thải	-1421
▁giản	-1422
▁thao	-1423
▁xung	-1424
▁kịp	-1425
éc	-1426
ụp	-1427
▁cân	-1428
▁dũng	-1429
▁tông	-1430
▁lái	-1431
▁trừ	-1432
▁thoát	-1433
▁ưu	-1434
▁khổ	-1435
▁mèo	-1436
▁ngờ	-1437
▁nhẹ	-1438
▁huấn	-1439
▁bọn	-1440
▁liệt	-1441
▁cặp	-1442
ườn	-1443
ẵng	-1444
▁lửa	-1445
▁gu	-1446
▁giỏi	-1447
▁thách	-1448
ọa	-1449
▁en	-1450
▁nhấn	-1451
▁trú	-1452
▁đỉnh	-1453
▁ừ	-1454
▁thỏa	-1455
▁tuấn	-1456
▁tĩnh	-1457
▁cũ	-1458
▁chùa	-1459
▁chặn	-1460
▁chặt	-1461
▁nẵng	-1462
▁thận	-1463
▁trích	-1464
▁hào	-1465
▁ngang	-1466
▁bật	-1467
▁họa	-1468
▁lộc	-1469
▁thổ	-1470
▁dàng	-1471
ãy	-1472
▁mắn	-1473
▁ngũ	-1474
▁com	-1475
▁nắm	-1476
▁căng	-1477
▁hôn	-1478
▁mãi	-1479
▁nỗi	-1480
▁ngược	-1481
▁thù	-1482
▁hiền	-1483
▁chóng	-1484
▁khoản	-1485
▁tơn	-1486
▁liền	-1487
▁khuyến	-1488
▁bão	-1489
▁cựu	-1490
▁sài	-1491
▁xo	-1492
▁bào	-1493
▁bãi	-1494
ỳnh	-1495
▁bo	-1496
▁mát	-1497
▁khóa	-1498
deo	-1499
▁dị	-1500
▁trấn	-1501
▁trông	-1502
▁video	-1503
▁đột	-1504
▁hoài	-1505
▁điền	-1506
▁chụp	-1507
▁miễn	-1508
▁trưng	-1509
▁thuyền	-1510
▁đe	-1511
▁gòn	-1512
▁nêu	-1513
▁tui	-1514
▁phật	-1515
▁cấm	-1516
▁lẫn	-1517
▁nấu	-1518
▁tùy	-1519
▁đoán	-1520
▁khánh	-1521
▁mẽ	-1522
▁nô	-1523
▁bớt	-1524
▁hãng	-1525
▁kiên	-1526
▁chiếu	-1527
▁bạch	-1528
▁dừng	-1529
▁thuyết	-1530
ro	-1531
▁ngắn	-1532
▁kẻ	-1533
▁dựa	-1534
▁thờ	-1535
▁lược	-1536
▁quận	-1537
▁thai	-1538
▁thẩm	-1539
es	-1540
éo	-1541
▁chó	-1542
▁kém	-1543
▁hưng	-1544
▁hạng	-1545
▁vườn	-1546
ợt	-1547
▁ngô	-1548
▁khóc	-1549
▁đương	-1550
▁bại	-1551
▁bắn	-1552
▁dâu	-1553
▁hài	-1554
▁sung	-1555
▁pa	-1556
▁vẽ	-1557
▁nợ	-1558
▁cấu	-1559
▁rác	-1560
▁phán	-1561
▁phận	-1562
▁w	-1563
▁lũ	-1564
▁hấp	-1565
▁trúc	-1566
▁giảng	-1567
▁ngoái	-1568
▁dọa	-1569
▁dứt	-1570
▁màn	-1571
▁lúa	-1572
▁mạc	-1573
▁tạp	-1574
▁thập	-1575
▁huyết	-1576
▁hủ	-1577
▁tỉ	-1578
▁búc	-1579
▁mưu	-1580
▁đạn	-1581
▁chứa	-1582
▁thuê	-1583
▁trùng	-1584
▁kì	-1585
▁bạo	-1586
▁dây	-1587
▁hộp	-1588
▁thọ	-1589
▁băng	-1590
▁nhắn	-1591
▁dữ	-1592
▁nổ	-1593
▁pu	-1594
▁cơn	-1595
▁nho	-1596
▁vời	-1597
▁tươi	-1598
ụng	-1599
▁hứa	-1600
▁chàng	-1601
▁chở	-1602
▁phu	-1603
▁nàng	-1604
▁tụi	-1605
▁đợt	-1606
▁phây	-1607
▁phiếu	-1608
ỡi	-1609
▁tiếc	-1610
ũi	-1611
▁nộ	-1612
▁va	-1613
▁bền	-1614
▁già	-1615
▁héc	-1616
▁hiến	-1617
▁loạt	-1618
▁ấm	-1619
▁túy	-1620
▁loạn	-1621
▁phấn	-1622
or	-1623
▁bá	-1624
▁bò	-1625
▁is	-1626
▁lây	-1627
▁rau	-1628
▁ngon	-1629
▁trống	-1630
▁đỗ	-1631
▁hủy	-1632
▁ung	-1633
▁lưới	-1634
▁vong	-1635
ượu	-1636
▁tan	-1637
▁rượu	-1638
▁trục	-1639
▁xinh	-1640
ac	-1641
▁cám	-1642
▁quỹ	-1643
▁rời	-1644
▁giam	-1645
▁khấu	-1646
▁f	-1647
▁chậm	-1648
▁lạnh	-1649
▁bó	-1650
▁bạc	-1651
▁vay	-1652
▁đàm	-1653
▁cuốn	-1654
▁lành	-1655
▁j	-1656
▁uy	-1657
▁tần	-1658
▁kháng	-1659
et	-1660
▁gờ	-1661
▁nửa	-1662
▁đèn	-1663
▁giàu	-1664
▁đuổi	-1665
▁huynh	-1666
▁my	-1667
▁dám	-1668
▁hán	-1669
▁tấm	-1670
▁súng	-1671
▁vĩnh	-1672
▁z	-1673
▁xứ	-1674
▁ân	-1675
▁cơm	-1676
▁lối	-1677
▁tôm	-1678
ềm	-1679
iếp	-1680
▁bối	-1681
▁khô	-1682
▁ngập	-1683
▁trứng	-1684
▁gạo	-1685
▁hồn	-1686
▁đua	-1687
▁đền	-1688
▁mộ	-1689
▁gấp	-1690
▁đẳng	-1691
▁thằng	-1692
ói	-1693
ếch	-1694
▁tóc	-1695
èm	-1696
íu	-1697
▁bơ	-1698
▁hề	-1699
▁ống	-1700
▁bảng	-1701
▁canh	-1702
▁ngừng	-1703
▁hè	-1704
▁nê	-1705
▁chả	-1706
▁buôn	-1707
▁lính	-1708
▁viễn	-1709
▁gương	-1710
▁huyền	-1711
ẳn	-1712
ụt	-1713
▁cãi	-1714
▁non	-1715
▁đám	-1716
▁chai	-1717
▁cảng	-1718
▁dường	-1719
▁thoải	-1720
ậc	-1721
▁tệ	-1722
▁bậc	-1723
▁cai	-1724
▁goa	-1725
▁lãi	-1726
▁mệt	-1727
▁sen	-1728
▁tia	-1729
ấc	-1730
▁hẳn	-1731
▁xâm	-1732
▁giáp	-1733
▁kịch	-1734
▁điệp	-1735
▁khích	-1736
▁trăng	-1737
li	-1738
▁nộp	-1739
▁hổng	-1740
▁ngọt	-1741
▁tiềm	-1742
▁tị	-1743
▁góc	-1744
▁tật	-1745
▁thổi	-1746
▁tùng	-1747
▁hoang	-1748
▁xương	-1749
ra	-1750
▁bồ	-1751
▁ẩn	-1752
▁giận	-1753
ri	-1754
▁mến	-1755
▁rối	-1756
▁chảy	-1757
▁nhắm	-1758
▁phái	-1759
▁trạm	-1760
▁vang	-1761
el	-1762
én	-1763
ướp	-1764
▁niu	-1765
▁đam	-1766
▁hiếm	-1767
▁lượt	-1768
▁bù	-1769
▁túc	-1770
▁đồn	-1771
▁dáng	-1772
▁khen	-1773
▁nhảy	-1774
▁giọng	-1775
▁ôi	-1776
▁tán	-1777
▁thang	-1778
▁tuân	-1779
▁dô	-1780
▁gơ	-1781
▁gỗ	-1782
▁lỗ	-1783
▁đai	-1784
▁chúa	-1785
▁phức	-1786
▁trốn	-1787
▁đẻ	-1788
▁tam	-1789
▁đáo	-1790
▁lặng	-1791
▁quái	-1792
▁trật	-1793
▁trịnh	-1794
▁hứng	-1795
▁lãng	-1796
▁trôi	-1797
▁duyên	-1798
▁thánh	-1799
▁rẻ	-1800
▁chối	-1801
▁lưng	-1802
▁mạch	-1803
ụy	-1804
▁bề	-1805
▁pê	-1806
▁gói	-1807
▁mềm	-1808
▁túi	-1809
▁tỏa	-1810
▁đập	-1811
▁cướp	-1812
▁hiếu	-1813
▁khẩn	-1814
▁thiểu	-1815
▁ê	-1816
▁gỡ	-1817
▁rủ	-1818
iếng	-1819
▁bát	-1820
▁bến	-1821
▁bồi	-1822
▁mùi	-1823
▁lang	-1824
▁lăng	-1825
▁nhãn	-1826
▁địch	-1827
▁thước	-1828
oi	-1829
▁sốt	-1830
▁túp	-1831
▁xíu	-1832
▁dinh	-1833
▁răng	-1834
▁duyệt	-1835
▁khuôn	-1836
▁phỏng	-1837
▁thăng	-1838
▁ốc	-1839
▁bèn	-1840
▁pha	-1841
▁thả	-1842
▁đinh	-1843
▁quỳnh	-1844
▁vỏ	-1845
▁diu	-1846
▁lát	-1847
▁lọc	-1848
alo	-1849
▁sỹ	-1850
iệng	-1851
▁cản	-1852
▁dao	-1853
▁mây	-1854
▁chấn	-1855
▁trầm	-1856
▁zalo	-1857
▁vé	-1858
▁lin	-1859
▁cương	-1860
▁phường	-1861
▁dọn	-1862
▁tổn	-1863
▁đan	-1864
▁cứng	-1865
▁tống	-1866
▁huống	-1867
▁thiệp	-1868
▁ne	-1869
▁ái	-1870
▁ẩm	-1871
▁rét	-1872
▁tháp	-1873
▁thơm	-1874
▁miệng	-1875
▁hư	-1876
▁ôn	-1877
▁che	-1878
▁lân	-1879
▁tàn	-1880
▁hoảng	-1881
▁me	-1882
▁man	-1883
▁nhở	-1884
▁não	-1885
▁tốn	-1886
▁đậu	-1887
▁diệt	-1888
▁pháo	-1889
▁nhũng	-1890
ow	-1891
▁hô	-1892
▁nãy	-1893
▁đói	-1894
▁khơi	-1895
▁vỡ	-1896
▁bia	-1897
▁hỏa	-1898
▁pho	-1899
▁trữ	-1900
▁đắc	-1901
▁thảm	-1902
▁tàng	-1903
▁hổ	-1904
▁iu	-1905
▁oa	-1906
▁po	-1907
▁bom	-1908
▁sắt	-1909
▁bông	-1910
▁dâng	-1911
▁thua	-1912
▁tháo	-1913
▁khuyên	-1914
▁lim	-1915
▁ran	-1916
▁đốt	-1917
▁kiều	-1918
▁tràn	-1919
▁bô	-1920
▁mờ	-1921
▁ôm	-1922
▁lào	-1923
▁xóa	-1924
▁giấc	-1925
▁hoan	-1926
▁viêm	-1927
▁điển	-1928
▁khung	-1929
▁be	-1930
▁cỏ	-1931
▁xá	-1932
▁leo	-1933
▁lãm	-1934
▁thẻ	-1935
▁bách	-1936
▁chim	-1937
▁giật	-1938
▁ngừa	-1939
ươn	-1940
▁dày	-1941
▁mũi	-1942
▁tảng	-1943
▁khổng	-1944
ém	-1945
▁ớ	-1946
▁tá	-1947
▁ủa	-1948
▁heo	-1949
▁say	-1950
▁ven	-1951
▁kiệm	-1952
▁sánh	-1953
▁ngưỡng	-1954
ùm	-1955
ựng	-1956
▁cú	-1957
▁pờ	-1958
▁rư	-1959
▁sê	-1960
▁bột	-1961
▁lắp	-1962
▁mỏi	-1963
▁rào	-1964
▁san	-1965
▁chủng	-1966
▁khiển	-1967
▁mo	-1968
▁chạm	-1969
▁tiệm	-1970
▁vuông	-1971
ic	-1972
ll	-1973
▁nụ	-1974
▁ghế	-1975
▁hung	-1976
▁xăng	-1977
▁chừng	-1978
▁khoan	-1979
▁ác	-1980
▁bận	-1981
▁cẩn	-1982
▁gan	-1983
▁hảo	-1984
▁tre	-1985
▁tắm	-1986
▁phẫu	-1987
▁tròn	-1988
▁nghiện	-1989
ộm	-1990
▁nở	-1991
▁đệ	-1992
▁bám	-1993
▁bùi	-1994
▁cốt	-1995
▁nan	-1996
▁bổng	-1997
▁rưỡi	-1998
▁vươn	-1999
▁điệu	-2000
▁ruộng	-2001
hi	-2002
ụi	-2003
▁dĩ	-2004
▁rà	-2005
▁bếp	-2006
▁dẹp	-2007
▁lay	-2008
▁rắc	-2009
▁ngụy	-2010
▁tiêm	-2011
▁đằng	-2012
▁đặng	-2013
ốm	-2014
▁im	-2015
▁chẽ	-2016
▁cửu	-2017
▁hàm	-2018
▁kín	-2019
▁men	-2020
▁sót	-2021
at	-2022
co	-2023
le	-2024
▁má	-2025
▁sổ	-2026
▁gợi	-2027
▁múa	-2028
▁sạn	-2029
▁tắt	-2030
▁đạp	-2031
▁bụng	-2032
▁mảnh	-2033
▁ngực	-2034
▁quét	-2035
▁khang	-2036
▁trúng	-2037
re	-2038
ênh	-2039
ỗng	-2040
▁côn	-2041
▁cột	-2042
▁móc	-2043
▁mầm	-2044
▁ngã	-2045
▁tha	-2046
▁tào	-2047
▁cổng	-2048
▁mệnh	-2049
▁đựng	-2050
▁trinh	-2051
▁nguyệt	-2052
ằn	-2053
▁bú	-2054
▁cỡ	-2055
▁nờ	-2056
▁un	-2057
▁dời	-2058
▁kèm	-2059
▁lầm	-2060
▁lốc	-2061
▁lừa	-2062
▁mực	-2063
▁phờ	-2064
▁rai	-2065
▁sôi	-2066
▁đeo	-2067
▁đậm	-2068
▁củng	-2069
▁gánh	-2070
▁miếng	-2071
▁thùng	-2072
▁thạch	-2073
▁vĩ	-2074
▁úc	-2075
▁đờ	-2076
▁gọn	-2077
▁hối	-2078
▁quế	-2079
▁đầm	-2080
▁nhựa	-2081
▁huỳnh	-2082
▁phước	-2083
▁mí	-2084
▁lão	-2085
▁nhĩ	-2086
▁thở	-2087
▁đắt	-2088
▁mông	-2089
▁ngầm	-2090
▁chiêu	-2091
ia	-2092
▁kg	-2093
▁tạ	-2094
▁tứ	-2095
▁cất	-2096
▁cấy	-2097
▁dọc	-2098
▁ham	-2099
▁lít	-2100
▁phe	-2101
▁rửa	-2102
▁bùng	-2103
▁chốt	-2104
▁giấu	-2105
▁khâu	-2106
▁tang	-2107
▁chinh	-2108
ff	-2109
▁bì	-2110
▁lam	-2111
▁tro	-2112
▁dược	-2113
▁thói	-2114
▁khanh	-2115
▁nhưỡng	-2116
▁ồ	-2117
aac	-2118
▁mồ	-2119
▁nề	-2120
▁bấy	-2121
▁gìn	-2122
▁lật	-2123
▁ngộ	-2124
▁vây	-2125
▁vết	-2126
▁đâm	-2127
▁kiệt	-2128
▁nhịp	-2129
▁isaac	-2130
▁nhuận	-2131
▁dò	-2132
▁xô	-2133
▁cắp	-2134
▁lóc	-2135
▁rủi	-2136
▁săn	-2137
▁tuệ	-2138
▁yến	-2139
▁tiễn	-2140
▁giáng	-2141
▁chướng	-2142
▁lồ	-2143
▁vơ	-2144
▁vờ	-2145
▁nhì	-2146
▁táo	-2147
▁ghép	-2148
▁hiển	-2149
▁trân	-2150
▁xứng	-2151
▁đoạt	-2152
▁nhàng	-2153
▁thuẫn	-2154
▁thịnh	-2155
lo	-2156
ượn	-2157
▁ke	-2158
▁sh	-2159
▁ảo	-2160
▁bẩy	-2161
▁làn	-2162
▁meo	-2163
▁nhị	-2164
▁vải	-2165
▁khéo	-2166
▁muộn	-2167
▁mộng	-2168
▁ngọn	-2169
▁ruột	-2170
▁tung	-2171
un	-2172
ốp	-2173
▁dã	-2174
▁dợ	-2175
▁mổ	-2176
▁bút	-2177
▁mãn	-2178
▁nát	-2179
▁rộn	-2180
▁than	-2181
▁thúy	-2182
▁đuôi	-2183
▁tràng	-2184
ýt	-2185
ớp	-2186
ton	-2187
▁mù	-2188
▁nu	-2189
▁xả	-2190
▁bón	-2191
▁hắn	-2192
▁lét	-2193
▁lộn	-2194
▁voi	-2195
▁đãi	-2196
▁đôn	-2197
▁nhăm	-2198
▁trọn	-2199
▁vắng	-2200
▁xoay	-2201
cro	-2202
▁no	-2203
▁khứ	-2204
▁mặn	-2205
▁mừn	-2206
▁vịt	-2207
▁đắp	-2208
▁thắc	-2209
▁tạng	-2210
▁vướng	-2211
ẫm	-2212
ẫy	-2213
▁lờ	-2214
▁vả	-2215
▁ben	-2216
▁cụm	-2217
▁mau	-2218
▁vội	-2219
▁ghét	-2220
▁khát	-2221
▁khôi	-2222
▁ngắm	-2223
▁sing	-2224
▁thụy	-2225
▁điên	-2226
▁thuần	-2227
ph	-2228
ẹt	-2229
▁ư	-2230
▁eo	-2231
▁lơ	-2232
▁on	-2233
▁cẩm	-2234
▁hạm	-2235
▁kem	-2236
▁lấp	-2237
▁cống	-2238
▁nhạy	-2239
▁nồng	-2240
▁treo	-2241
▁vầng	-2242
▁giêng	-2243
▁lỡ	-2244
▁mỏ	-2245
▁hôi	-2246
▁kìa	-2247
▁lạm	-2248
▁lắc	-2249
▁nốt	-2250
▁hỏng	-2251
▁liêu	-2252
▁rung	-2253
▁chuỗi	-2254
úy	-2255
ino	-2256
ướt	-2257
▁am	-2258
▁ao	-2259
▁bỉ	-2260
▁hò	-2261
▁lở	-2262
▁sô	-2263
▁bơi	-2264
▁ken	-2265
▁mạn	-2266
▁roi	-2267
▁rèn	-2268
▁rắn	-2269
▁rớt	-2270
▁sàn	-2271
▁van	-2272
▁lồng	-2273
▁ngón	-2274
▁phun	-2275
▁thép	-2276
▁trộm	-2277
▁khuyết	-2278
ẹo	-2279
▁gô	-2280
▁kỉ	-2281
▁se	-2282
▁tề	-2283
▁ám	-2284
▁bấm	-2285
▁bốc	-2286
▁dồi	-2287
▁gũi	-2288
▁vạn	-2289
▁cúng	-2290
▁giày	-2291
▁luân	-2292
▁ngựa	-2293
▁roai	-2294
▁chánh	-2295
▁nọ	-2296
▁mác	-2297
▁mắm	-2298
▁nai	-2299
▁thợ	-2300
▁khoe	-2301
▁ngạc	-2302
▁chăng	-2303
▁ngưng	-2304
ẻo	-2305
▁bl	-2306
▁dở	-2307
▁lề	-2308
▁tủ	-2309
▁bụi	-2310
▁min	-2311
▁mít	-2312
▁mọc	-2313
▁rải	-2314
▁son	-2315
▁sắm	-2316
▁vất	-2317
▁xen	-2318
▁xóm	-2319
▁đùa	-2320
▁bích	-2321
▁chua	-2322
▁chậu	-2323
▁chặng	-2324
iệc	-2325
▁bư	-2326
▁dơ	-2327
▁vy	-2328
▁cốc	-2329
▁dãy	-2330
▁gao	-2331
▁nút	-2332
▁nhầm	-2333
▁ranh	-2334
▁rồng	-2335
▁trâu	-2336
▁thoái	-2337
▁thỉnh	-2338
▁chuồng	-2339
ar	-2340
ue	-2341
▁xế	-2342
▁đơ	-2343
▁bốt	-2344
▁gom	-2345
▁huệ	-2346
▁hãi	-2347
▁hẹp	-2348
▁lôi	-2349
▁mâu	-2350
▁sừn	-2351
▁bưởi	-2352
▁chôn	-2353
▁khép	-2354
▁thùy	-2355
▁tách	-2356
▁đoan	-2357
id	-2358
ke	-2359
rk	-2360
sa	-2361
ễu	-2362
▁dề	-2363
▁le	-2364
▁lò	-2365
▁nơ	-2366
▁ức	-2367
▁chì	-2368
▁lùi	-2369
▁lụt	-2370
▁mạo	-2371
▁phô	-2372
▁đúc	-2373
▁diệu	-2374
▁hoãn	-2375
▁ngơi	-2376
▁phổi	-2377
▁thâm	-2378
▁trắc	-2379
▁tưới	-2380
▁hoành	-2381
▁khiếu	-2382
▁tuyết	-2383
so	-2384
um	-2385
▁mũ	-2386
▁cay	-2387
▁dừa	-2388
▁hòn	-2389
▁lận	-2390
▁nấm	-2391
▁sin	-2392
▁váy	-2393
▁ổng	-2394
▁chán	-2395
▁muối	-2396
▁móng	-2397
▁mỏng	-2398
▁ngài	-2399
▁tiệc	-2400
▁trừng	-2401
▁khoáng	-2402
▁nhượng	-2403
▁thoáng	-2404
ck	-2405
ùn	-2406
▁í	-2407
ura	-2408
▁ac	-2409
▁dì	-2410
▁mẻ	-2411
▁nồ	-2412
▁xì	-2413
▁dịu	-2414
▁lui	-2415
▁rây	-2416
▁sáp	-2417
▁đồi	-2418
▁chìm	-2419
▁giọt	-2420
▁mượn	-2421
▁soạn	-2422
▁vịnh	-2423
▁xích	-2424
▁đành	-2425
▁đụng	-2426
▁ngoan	-2427
▁nướng	-2428
is	-2429
us	-2430
him	-2431
▁ưa	-2432
▁ấp	-2433
▁ừm	-2434
▁chè	-2435
▁cạn	-2436
▁hưu	-2437
▁lấn	-2438
▁lậu	-2439
▁mốc	-2440
▁run	-2441
▁chửi	-2442
▁giãn	-2443
▁hino	-2444
▁phai	-2445
▁phen	-2446
▁suối	-2447
▁sướng	-2448
▁triệt	-2449
▁truyện	-2450
op	-2451
▁te	-2452
▁vở	-2453
▁bơm	-2454
▁khe	-2455
▁lặp	-2456
▁ren	-2457
▁rãi	-2458
▁tẩy	-2459
▁tựu	-2460
▁đạc	-2461
▁dính	-2462
▁phét	-2463
▁xưng	-2464
himura	-2465
▁cưỡng	-2466
▁phiền	-2467
▁quyên	-2468
▁sương	-2469
▁ishimura	-2470
▁tớ	-2471
▁úy	-2472
▁bẩm	-2473
▁hâm	-2474
▁hân	-2475
▁nâu	-2476
▁nít	-2477
▁nảy	-2478
▁ráp	-2479
▁râu	-2480
▁chém	-2481
▁chẩn	-2482
▁liều	-2483
▁lỏng	-2484
▁tước	-2485
▁khuẩn	-2486
▁thính	-2487
it	-2488
óp	-2489
▁dê	-2490
▁mì	-2491
▁re	-2492
▁ry	-2493
▁ớt	-2494
▁bái	-2495
▁bưu	-2496
▁cua	-2497
▁dối	-2498
▁hiu	-2499
▁hái	-2500
▁hận	-2501
▁lau	-2502
▁len	-2503
▁lạt	-2504
▁tóm	-2505
▁giàn	-2506
▁lưỡi	-2507
▁màng	-2508
▁thầu	-2509
▁trộn	-2510
▁buông	-2511
▁nhường	-2512
▁thiêng	-2513
il	-2514
▁ốt	-2515
▁ồn	-2516
▁bóc	-2517
▁dạo	-2518
▁ghê	-2519
▁gắt	-2520
▁hầm	-2521
▁sợi	-2522
▁thô	-2523
▁tản	-2524
▁đếm	-2525
▁láng	-2526
▁lệch	-2527
▁ngợi	-2528
▁nhẫn	-2529
▁chuột	-2530
▁nhung	-2531
▁giường	-2532
▁thoảng	-2533
▁lì	-2534
▁lữ	-2535
▁bai	-2536
▁ghé	-2537
▁hỗn	-2538
▁lọt	-2539
▁nạp	-2540
▁rít	-2541
▁súc	-2542
▁sốc	-2543
▁trễ	-2544
▁tun	-2545
▁vẹn	-2546
▁dông	-2547
▁họng	-2548
▁khái	-2549
▁thấu	-2550
▁thầm	-2551
▁vạch	-2552
▁đống	-2553
▁chuối	-2554
▁khoán	-2555
▁chuông	-2556
ĩa	-2557
ack	-2558
▁bế	-2559
▁xơ	-2560
▁béo	-2561
▁bẩn	-2562
▁cúp	-2563
▁gay	-2564
▁giơ	-2565
▁hắt	-2566
▁mía	-2567
▁mậu	-2568
▁mộc	-2569
▁nếp	-2570
▁rập	-2571
▁blue	-2572
▁chép	-2573
▁cành	-2574
▁ghen	-2575
▁gieo	-2576
▁gạch	-2577
▁khớp	-2578
▁nhan	-2579
▁rách	-2580
▁thục	-2581
▁ngạch	-2582
▁nhánh	-2583
▁tráng	-2584
▁xưởng	-2585
▁ả	-2586
▁mị	-2587
▁ui	-2588
▁bóp	-2589
▁dồn	-2590
▁nén	-2591
▁ong	-2592
▁soi	-2593
▁sét	-2594
▁top	-2595
▁trọ	-2596
▁đòn	-2597
▁manh	-2598
▁muôn	-2599
▁thắt	-2600
▁tụng	-2601
▁khiêm	-2602
▁phụng	-2603
▁phượng	-2604
bo	-2605
▁he	-2606
▁kỵ	-2607
▁mĩ	-2608
▁rể	-2609
▁st	-2610
▁vú	-2611
▁bội	-2612
▁chê	-2613
▁dắt	-2614
▁dặn	-2615
▁giề	-2616
▁guy	-2617
▁gãy	-2618
▁lót	-2619
▁lạp	-2620
▁nhã	-2621
▁nại	-2622
▁đán	-2623
▁đáy	-2624
▁bỗng	-2625
▁cưng	-2626
▁miệt	-2627
▁mảng	-2628
▁nhạt	-2629
▁thấm	-2630
▁trơn	-2631
▁trọt	-2632
▁luồng	-2633
▁quyến	-2634
▁troăm	-2635
▁trạch	-2636
▁chuộng	-2637
ad	-2638
os	-2639
th	-2640
ún	-2641
▁xỉ	-2642
▁bắp	-2643
▁bộc	-2644
▁chư	-2645
▁dệt	-2646
▁lứa	-2647
▁ngự	-2648
▁ném	-2649
▁sếp	-2650
▁sụt	-2651
▁wow	-2652
▁hoại	-2653
▁mark	-2654
▁ngào	-2655
▁ngạn	-2656
▁quát	-2657
▁sanh	-2658
▁khiếp	-2659
▁khoai	-2660
▁nhiễu	-2661
▁quyển	-2662
▁nghênh	-2663
ing	-2664
ver	-2665
ãng	-2666
▁xạ	-2667
▁át	-2668
▁ốm	-2669
▁bọc	-2670
▁dâm	-2671
▁léo	-2672
▁mập	-2673
▁pét	-2674
▁rốt	-2675
▁sưu	-2676
▁vắc	-2677
▁đới	-2678
▁cháo	-2679
▁châm	-2680
▁chén	-2681
▁game	-2682
▁hăng	-2683
▁kiêm	-2684
▁lùng	-2685
▁ngãi	-2686
▁nhậu	-2687
▁thèm	-2688
▁trội	-2689
▁giềng	-2690
▁phanh	-2691
ỉa	-2692
ụn	-2693
mon	-2694
tes	-2695
▁dỡ	-2696
▁mò	-2697
▁ve	-2698
▁cài	-2699
▁dốc	-2700
▁hon	-2701
▁hít	-2702
▁off	-2703
▁tua	-2704
▁tím	-2705
▁chọi	-2706
▁chốn	-2707
▁gián	-2708
▁khói	-2709
▁oanh	-2710
▁vũng	-2711
▁xông	-2712
▁đọng	-2713
▁chiết	-2714
▁micro	-2715
▁phùng	-2716
▁nghịch	-2717
as	-2718
ễm	-2719
and	-2720
dro	-2721
ici	-2722
▁bạ	-2723
▁cò	-2724
▁dờ	-2725
▁eu	-2726
▁há	-2727
▁kệ	-2728
▁pô	-2729
▁ào	-2730
▁út	-2731
▁ờm	-2732
▁báu	-2733
▁cúm	-2734
▁cậy	-2735
▁cắm	-2736
▁cồn	-2737
▁dập	-2738
▁gác	-2739
▁hợi	-2740
▁ngỡ	-2741
▁sạt	-2742
▁thề	-2743
▁tựa	-2744
▁uây	-2745
▁vứt	-2746
▁đĩa	-2747
▁đắn	-2748
▁lánh	-2749
▁phóc	-2750
▁xuôi	-2751
▁đổng	-2752
▁chiêm	-2753
▁chiên	-2754
▁gates	-2755
▁khống	-2756
▁lưỡng	-2757
ặm	-2758
ịt	-2759
ụa	-2760
lip	-2761
unt	-2762
▁as	-2763
▁bể	-2764
▁nà	-2765
▁rễ	-2766
▁bon	-2767
▁bít	-2768
▁bùn	-2769
▁bực	-2770
▁cáp	-2771
▁cóc	-2772
▁dàn	-2773
▁hao	-2774
▁kép	-2775
▁neo	-2776
▁ngõ	-2777
▁nới	-2778
▁oai	-2779
▁thà	-2780
▁từn	-2781
▁vin	-2782
▁xót	-2783
▁xôi	-2784
▁đứt	-2785
count	-2786
icial	-2787
▁bill	-2788
▁guây	-2789
▁hiếp	-2790
▁khôn	-2791
▁kiếp	-2792
▁rạng	-2793
▁trác	-2794
▁hoằng	-2795
▁khuya	-2796
▁chuyền	-2797
▁account	-2798
▁nghiêng	-2799
▁official	-2800
ft	-2801
ửng	-2802
▁kĩ	-2803
▁rũ	-2804
▁rẽ	-2805
▁rỡ	-2806
▁us	-2807
▁vỗ	-2808
▁xà	-2809
▁xờ	-2810
▁gai	-2811
▁hót	-2812
▁khử	-2813
▁kẹo	-2814
▁mòn	-2815
▁nồi	-2816
▁the	-2817
▁thự	-2818
▁tát	-2819
▁xoa	-2820
▁đạm	-2821
▁banh	-2822
▁măng	-2823
▁nasa	-2824
▁ngậm	-2825
▁niêm	-2826
▁ních	-2827
▁phôi	-2828
▁quạt	-2829
▁uyên	-2830
▁xoáy	-2831
▁đuối	-2832
▁chênh	-2833
▁vượng	-2834
▁nghiệt	-2835
pu	-2836
zu	-2837
íp	-2838
ớn	-2839
one	-2840
tam	-2841
ter	-2842
ếng	-2843
▁hở	-2844
▁mõ	-2845
▁mỡ	-2846
▁rã	-2847
▁rê	-2848
▁xù	-2849
▁óc	-2850
soft	-2851
▁hun	-2852
▁lột	-2853
▁ngà	-2854
▁quỷ	-2855
▁sít	-2856
▁vít	-2857
▁xài	-2858
▁đao	-2859
▁bàng	-2860
▁chót	-2861
▁chật	-2862
▁dưng	-2863
▁giời	-2864
▁kiềm	-2865
▁liêm	-2866
▁thắp	-2867
▁trây	-2868
▁giếng	-2869
▁nhược	-2870
▁microsoft	-2871
pv	-2872
▁ế	-2873
log	-2874
▁je	-2875
▁ka	-2876
▁kẽ	-2877
mond	-2878
▁bin	-2879
▁dại	-2880
▁dạn	-2881
▁dẻo	-2882
▁dội	-2883
▁gối	-2884
▁gốm	-2885
▁kha	-2886
▁lăn	-2887
▁lội	-2888
▁mun	-2889
▁mồm	-2890
▁nôm	-2891
▁oan	-2892
▁phế	-2893
▁sào	-2894
▁sập	-2895
▁tru	-2896
▁xít	-2897
▁đắm	-2898
▁ếch	-2899
▁chan	-2900
▁giặc	-2901
▁giục	-2902
▁khao	-2903
▁like	-2904
▁lung	-2905
▁ngao	-2906
▁phôn	-2907
▁thắm	-2908
▁lường	-2909
▁quãng	-2910
▁hammond	-2911
te	-2912
mor	-2913
▁de	-2914
▁bạt	-2915
▁dim	-2916
▁dưa	-2917
▁dới	-2918
▁gạt	-2919
▁hây	-2920
▁mụn	-2921
▁quỵ	-2922
▁tít	-2923
▁tọa	-2924
▁tồi	-2925
▁vóc	-2926
morph	-2927
▁bỏng	-2928
▁bống	-2929
▁chay	-2930
▁diệp	-2931
▁euro	-2932
▁gion	-2933
▁goai	-2934
▁gừng	-2935
▁huân	-2936
▁ngất	-2937
▁nhọn	-2938
▁phàn	-2939
▁rước	-2940
▁chích	-2941
▁chững	-2942
▁necro	-2943
▁ngươi	-2944
▁khoảnh	-2945
▁necromorph	-2946
zos	-2947
ươm	-2948
▁dỗ	-2949
▁gõ	-2950
▁mỉ	-2951
▁nạ	-2952
▁vã	-2953
▁bún	-2954
▁chớ	-2955
▁hen	-2956
▁háo	-2957
▁kèn	-2958
▁kẹt	-2959
▁lầu	-2960
▁lụa	-2961
▁mpv	-2962
▁mồi	-2963
▁phà	-2964
▁rùa	-2965
▁sụp	-2966
▁vấp	-2967
▁buýt	-2968
▁goép	-2969
▁ngâm	-2970
▁phao	-2971
▁phơi	-2972
▁rong	-2973
▁rích	-2974
▁siết	-2975
▁trùm	-2976
▁túng	-2977
▁điêu	-2978
▁đàng	-2979
▁bezos	-2980
▁khoác	-2981
▁khuất	-2982
▁mường	-2983
▁triton	-2984
ap	-2985
ha	-2986
pa	-2987
ũa	-2988
ace	-2989
est	-2990
▁hố	-2991
▁hờ	-2992
▁rơ	-2993
▁rờ	-2994
▁tò	-2995
▁đố	-2996
▁ủi	-2997
▁bét	-2998
▁cắn	-2999
▁dai	-3000
▁hét	-3001
▁hức	-3002
▁lốt	-3003
▁mẫn	-3004
▁new	-3005
▁ngỏ	-3006
▁phở	-3007
▁rao	-3008
▁rôn	-3009
▁tem	-3010
▁tăm	-3011
▁tảo	-3012
▁vôi	-3013
▁vỉa	-3014
▁ịch	-3015
lover	-3016
▁bành	-3017
▁bênh	-3018
▁còng	-3019
▁diễm	-3020
▁dong	-3021
▁hang	-3022
▁jack	-3023
▁jeff	-3024
▁khan	-3025
▁khía	-3026
▁liễu	-3027
▁lướt	-3028
▁lạng	-3029
▁nhôm	-3030
▁phết	-3031
▁shop	-3032
▁sườn	-3033
▁thắn	-3034
▁xách	-3035
▁khiết	-3036
▁liêng	-3037
▁nương	-3038
▁phẳng	-3039
▁khoang	-3040
▁khương	-3041
ma	-3042
ưn	-3043
ban	-3044
▁ci	-3045
▁hê	-3046
▁hơ	-3047
▁rì	-3048
iểng	-3049
▁cày	-3050
▁cởi	-3051
▁fan	-3052
▁hoi	-3053
▁ind	-3054
▁kíp	-3055
▁lon	-3056
▁mịn	-3057
▁nhỉ	-3058
▁nàn	-3059
▁pen	-3060
▁phơ	-3061
▁sim	-3062
▁thỏ	-3063
▁trô	-3064
▁tét	-3065
▁tút	-3066
▁tặc	-3067
▁vét	-3068
▁đày	-3069
▁đũa	-3070
▁đớn	-3071
▁đừn	-3072
▁ướt	-3073
droid	-3074
▁bong	-3075
▁chui	-3076
▁doãn	-3077
▁khốc	-3078
▁lanh	-3079
▁miêu	-3080
▁miến	-3081
▁moon	-3082
▁ngây	-3083
▁ngói	-3084
▁ngặt	-3085
▁phác	-3086
▁thám	-3087
▁thối	-3088
▁chếch	-3089
▁clover	-3090
▁android	-3091
ba	-3092
be	-3093
ve	-3094
wi	-3095
iếc	-3096
lin	-3097
rig	-3098
son	-3099
▁kề	-3100
▁mm	-3101
▁rộ	-3102
▁sy	-3103
▁tà	-3104
▁tý	-3105
▁đè	-3106
▁đò	-3107
▁biu	-3108
▁côi	-3109
▁dép	-3110
▁hụt	-3111
▁inh	-3112
▁keo	-3113
▁kít	-3114
▁lớt	-3115
▁lụy	-3116
▁mào	-3117
▁nhẽ	-3118
▁nhổ	-3119
▁reo	-3120
▁rực	-3121
▁sầu	-3122
▁tốp	-3123
▁xao	-3124
▁xám	-3125
▁yết	-3126
▁đèo	-3127
▁chìa	-3128
▁diêm	-3129
▁khải	-3130
▁kiwi	-3131
▁nhậm	-3132
▁nhịn	-3133
▁nhộn	-3134
▁phẫn	-3135
▁rảnh	-3136
▁rụng	-3137
▁thạc	-3138
▁thềm	-3139
▁vành	-3140
▁điếu	-3141
▁chưng	-3142
▁cuống	-3143
▁ngàng	-3144
▁phiêu	-3145
▁thiêm	-3146
▁viếng	-3147
▁xướng	-3148
ou	-3149
st	-3150
▁ứ	-3151
ian	-3152
▁bớ	-3153
▁gò	-3154
▁ky	-3155
▁ox	-3156
▁êm	-3157
▁ắp	-3158
▁bôi	-3159
▁băn	-3160
▁bịt	-3161
▁bồn	-3162
▁chà	-3163
▁cõi	-3164
▁don	-3165
▁dán	-3166
▁dải	-3167
▁khê	-3168
▁loa	-3169
▁lũy	-3170
▁lầy	-3171
▁mìn	-3172
▁ngó	-3173
▁nhí	-3174
▁nây	-3175
▁nón	-3176
▁nứt	-3177
▁ram	-3178
▁ráo	-3179
▁rệt	-3180
▁seo	-3181
▁súp	-3182
▁ten	-3183
▁trù	-3184
▁vắt	-3185
▁áng	-3186
▁chen	-3187
▁chéo	-3188
▁ghêm	-3189
▁giặt	-3190
▁hoạn	-3191
▁loóc	-3192
▁luộc	-3193
▁lách	-3194
▁lích	-3195
▁lũng	-3196
▁lười	-3197
▁mếch	-3198
▁nhặt	-3199
▁riết	-3200
▁sừng	-3201
▁viet	-3202
▁khiêu	-3203
▁khoăn	-3204
▁kiêng	-3205
▁thiêu	-3206
▁triết	-3207
▁tuồng	-3208
ey	-3209
ge	-3210
go	-3211
ie	-3212
ok	-3213
ịa	-3214
ỡn	-3215
dra	-3216
ers	-3217
õng	-3218
▁cọ	-3219
▁cỗ	-3220
▁km	-3221
▁vớ	-3222
▁we	-3223
▁ót	-3224
▁cưa	-3225
▁cối	-3226
▁duê	-3227
▁giê	-3228
▁kin	-3229
▁lõi	-3230
▁lùn	-3231
▁lún	-3232
▁lừn	-3233
▁noi	-3234
▁oăn	-3235
▁oải	-3236
▁pết	-3237
▁sia	-3238
▁sâm	-3239
▁vòi	-3240
▁ươm	-3241
▁chèo	-3242
▁chợt	-3243
▁doóc	-3244
▁khắt	-3245
▁khốn	-3246
▁miếu	-3247
▁ngục	-3248
▁nhát	-3249
▁show	-3250
▁soái	-3251
▁then	-3252
▁trum	-3253
▁tếch	-3254
▁viền	-3255
ce	-3256
oo	-3257
ym	-3258
ind	-3259
ria	-3260
tan	-3261
▁bệ	-3262
▁ii	-3263
▁né	-3264
▁pe	-3265
▁xé	-3266
▁ấu	-3267
▁ết	-3268
▁bìa	-3269
▁bẫy	-3270
▁bứt	-3271
▁gua	-3272
▁gấu	-3273
▁gởi	-3274
▁han	-3275
▁hèn	-3276
▁lum	-3277
▁lén	-3278
▁mao	-3279
▁mon	-3280
▁ngơ	-3281
▁phì	-3282
▁pốt	-3283
▁rin	-3284
▁ron	-3285
▁rạp	-3286
▁rỗi	-3287
▁sưn	-3288
▁tưn	-3289
▁tỉa	-3290
▁đái	-3291
▁chạp	-3292
▁diều	-3293
▁giòn	-3294
▁giùm	-3295
▁ngột	-3296
▁nhục	-3297
▁ruồi	-3298
▁ráng	-3299
▁rỗng	-3300
▁thuở	-3301
▁trèo	-3302
▁tịnh	-3303
▁điềm	-3304
▁buồng	-3305
▁cuồng	-3306
▁giông	-3307
▁khoát	-3308
▁phiến	-3309
▁quyện	-3310
▁quách	-3311
▁trượt	-3312
▁kendra	-3313
pt	-3314
ta	-3315
lay	-3316
ore	-3317
rah	-3318
ran	-3319
tin	-3320
ườm	-3321
▁al	-3322
▁cù	-3323
▁cừ	-3324
▁vò	-3325
▁đì	-3326
▁ốp	-3327
ines	-3328
▁bót	-3329
▁búa	-3330
▁cọc	-3331
▁din	-3332
▁dôn	-3333
▁dơi	-3334
▁dặm	-3335
▁gen	-3336
▁giỗ	-3337
▁gâu	-3338
▁hãm	-3339
▁két	-3340
▁lun	-3341
▁lậy	-3342
▁lặn	-3343
▁mầu	-3344
▁nhe	-3345
▁nôn	-3346
▁rát	-3347
▁tiu	-3348
▁tom	-3349
▁tòi	-3350
▁tụt	-3351
▁vãn	-3352
▁vầy	-3353
▁vớt	-3354
▁web	-3355
▁đần	-3356
nhanh	-3357
▁chát	-3358
▁chùm	-3359
▁chọc	-3360
▁clip	-3361
▁diêu	-3362
▁gien	-3363
▁khay	-3364
▁khuê	-3365
▁kiêu	-3366
▁mãnh	-3367
▁mượt	-3368
▁mồng	-3369
▁nhai	-3370
▁nuối	-3371
▁nuốt	-3372
▁phớt	-3373
▁rạch	-3374
▁sùng	-3375
▁thon	-3376
▁thốn	-3377
▁toan	-3378
▁tràm	-3379
▁xoài	-3380
▁chanh	-3381
▁khinh	-3382
▁khoái	-3383
▁kiểng	-3384
▁phoóc	-3385
▁trướng	-3386
ul	-3387
ẻm	-3388
ếm	-3389
ald	-3390
ard	-3391
enn	-3392
ows	-3393
ris	-3394
thu	-3395
und	-3396
▁cớ	-3397
▁hì	-3398
▁kè	-3399
▁lọ	-3400
▁lự	-3401
▁xí	-3402
▁yể	-3403
▁ưn	-3404
▁ạt	-3405
book	-3406
▁bum	-3407
▁bèo	-3408
▁bén	-3409
▁bướ	-3410
▁chô	-3411
▁cào	-3412
▁cót	-3413
▁cúi	-3414
▁cốp	-3415
▁dăm	-3416
▁gút	-3417
▁iii	-3418
▁lều	-3419
▁ngả	-3420
▁nhô	-3421
▁nức	-3422
▁oát	-3423
▁que	-3424
▁quỳ	-3425
▁rót	-3426
▁sưa	-3427
▁sấu	-3428
▁sỏi	-3429
▁tấu	-3430
▁uất	-3431
▁viu	-3432
▁vàn	-3433
▁vơi	-3434
▁vặt	-3435
▁xát	-3436
▁xôn	-3437
▁xịt	-3438
▁úng	-3439
▁đản	-3440
▁đặn	-3441
▁đốn	-3442
apore	-3443
phone	-3444
rigin	-3445
▁dang	-3446
▁goét	-3447
▁ngần	-3448
▁ngẫu	-3449
▁nhàn	-3450
▁phím	-3451
▁uyển	-3452
▁võng	-3453
▁wind	-3454
▁đắng	-3455
▁nhiếp	-3456
▁trump	-3457
▁origin	-3458
▁windows	-3459
▁singapore	-3460
da	-3461
ps	-3462
ru	-3463
ty	-3464
ur	-3465
▁ó	-3466
dat	-3467
gon	-3468
net	-3469
uli	-3470
uzu	-3471
▁cm	-3472
▁gả	-3473
▁kị	-3474
▁rỉ	-3475
▁ùn	-3476
▁đả	-3477
▁ầm	-3478
chin	-3479
leon	-3480
tính	-3481
▁càn	-3482
▁cút	-3483
▁căm	-3484
▁cấn	-3485
▁dào	-3486
▁dẫu	-3487
▁dứa	-3488
▁gân	-3489
▁hom	-3490
▁hăm	-3491
▁hỡi	-3492
▁mài	-3493
▁nao	-3494
▁nem	-3495
▁nớt	-3496
▁oxy	-3497
▁pót	-3498
▁răn	-3499
▁rằm	-3500
▁sam	-3501
▁ser	-3502
▁sút	-3503
▁sởi	-3504
▁vảy	-3505
▁xăm	-3506
▁xắn	-3507
▁đít	-3508
▁đẫm	-3509
▁biếm	-3510
▁bừng	-3511
▁chạc	-3512
▁chầu	-3513
▁giỡn	-3514
▁goát	-3515
▁lượn	-3516
▁nhức	-3517
▁quýt	-3518
▁quấn	-3519
▁sapa	-3520
▁thạo	-3521
▁trêu	-3522
▁trầu	-3523
▁tòng	-3524
▁chang	-3525
▁isuzu	-3526
▁khiếm	-3527
▁nhúng	-3528
▁thiền	-3529
▁thạnh	-3530
▁xuồng	-3531
▁cấptính	-3532
ga	-3533
ol	-3534
sc	-3535
ss	-3536
ito	-3537
lym	-3538
oll	-3539
ướn	-3540
▁ap	-3541
▁au	-3542
▁bã	-3543
▁bẻ	-3544
▁hé	-3545
▁jo	-3546
▁ny	-3547
▁or	-3548
▁pồ	-3549
▁um	-3550
▁up	-3551
▁xy	-3552
▁ừn	-3553
esia	-3554
logy	-3555
▁bừa	-3556
▁den	-3557
▁dui	-3558
▁dầm	-3559
▁giò	-3560
▁gót	-3561
▁hấn	-3562
▁hắc	-3563
▁hẻm	-3564
▁hớt	-3565
▁khỉ	-3566
▁liu	-3567
▁lựu	-3568
▁mia	-3569
▁mâm	-3570
▁mêu	-3571
▁náo	-3572
▁níu	-3573
▁nần	-3574
▁nắp	-3575
▁riu	-3576
▁rạn	-3577
▁rịa	-3578
▁rốc	-3579
▁sạc	-3580
▁sấy	-3581
▁tạc	-3582
▁tấp	-3583
▁tỏi	-3584
▁vần	-3585
▁vẩn	-3586
▁yam	-3587
▁ách	-3588
▁đùi	-3589
▁đấm	-3590
▁đẩu	-3591
▁đục	-3592
ersey	-3593
rahma	-3594
tamin	-3595
ulius	-3596
▁cong	-3597
▁diên	-3598
▁diễu	-3599
▁face	-3600
▁giôn	-3601
▁guyn	-3602
▁hước	-3603
▁mich	-3604
▁muỗi	-3605
▁mắng	-3606
▁nham	-3607
▁nhóc	-3608
▁nico	-3609
▁phót	-3610
▁pếch	-3611
▁thêu	-3612
▁thản	-3613
▁trăn	-3614
▁xoắn	-3615
▁đính	-3616
onesia	-3617
ternet	-3618
▁malay	-3619
▁muỗng	-3620
▁thung	-3621
▁unito	-3622
▁brahma	-3623
▁cochin	-3624
▁jersey	-3625
▁julius	-3626
▁vitamin	-3627
▁facebook	-3628
▁internet	-3629
▁indonesia	-3630
▁unitology	-3631
dy	-3632
ec	-3633
na	-3634
tu	-3635
bin	-3636
ess	-3637
ượm	-3638
▁dè	-3639
▁nã	-3640
▁nể	-3641
▁ok	-3642
▁pơ	-3643
▁rợ	-3644
▁xẻ	-3645
▁úi	-3646
▁úp	-3647
▁ải	-3648
amin	-3649
chia	-3650
lipp	-3651
▁boi	-3652
▁bun	-3653
▁bần	-3654
▁bầy	-3655
▁bậy	-3656
▁cặn	-3657
▁dãi	-3658
▁ghe	-3659
▁giã	-3660
▁gát	-3661
▁gặt	-3662
▁hóc	-3663
▁hạo	-3664
▁kel	-3665
▁khơ	-3666
▁líu	-3667
▁lốp	-3668
▁mỉm	-3669
▁nót	-3670
▁nôi	-3671
▁oán	-3672
▁pre	-3673
▁rầm	-3674
▁rốn	-3675
▁trá	-3676
▁tâu	-3677
▁vọt	-3678
▁vợt	-3679
▁xay	-3680
▁xzu	-3681
▁xào	-3682
▁xảo	-3683
▁you	-3684
▁yểm	-3685
▁đét	-3686
dator	-3687
estay	-3688
▁bướm	-3689
▁bồng	-3690
▁chóc	-3691
▁chóp	-3692
▁cước	-3693
▁dượt	-3694
▁goắt	-3695
▁khít	-3696
▁miên	-3697
▁miện	-3698
▁mướn	-3699
▁ngòi	-3700
▁nhấp	-3701
▁nhốt	-3702
▁nhồi	-3703
▁phiu	-3704
▁quấy	-3705
▁sưng	-3706
▁thoa	-3707
▁thửa	-3708
▁vuốt	-3709
▁vách	-3710
▁đùng	-3711
puchia	-3712
▁camer	-3713
▁giằng	-3714
▁paris	-3715
▁quăng	-3716
▁tigon	-3717
▁tuyền	-3718
▁bantam	-3719
▁muaban	-3720
▁nicole	-3721
lippines	-3722
▁homestay	-3723
▁predator	-3724
▁campuchia	-3725
▁muabannhanh	-3726
▁philippines	-3727
ag	-3728
cu	-3729
eg	-3730
ky	-3731
rn	-3732
ẳm	-3733
ẵm	-3734
▁ố	-3735
ada	-3736
ael	-3737
ain	-3738
are	-3739
ber	-3740
han	-3741
men	-3742
▁cộ	-3743
▁dí	-3744
▁hí	-3745
▁mc	-3746
▁rồ	-3747
▁té	-3748
▁tể	-3749
▁ỏi	-3750
egis	-3751
haha	-3752
illi	-3753
lick	-3754
line	-3755
▁bam	-3756
▁béc	-3757
▁bộn	-3758
▁bới	-3759
▁cội	-3760
▁dạt	-3761
▁dầy	-3762
▁dốt	-3763
▁gầy	-3764
▁gớm	-3765
▁hãn	-3766
▁hốt	-3767
▁kìm	-3768
▁lút	-3769
▁mép	-3770
▁mưn	-3771
▁mần	-3772
▁mết	-3773
▁nản	-3774
▁piu	-3775
▁pít	-3776
▁rẫy	-3777
▁rậm	-3778
▁rụi	-3779
▁sum	-3780
▁sây	-3781
▁sọc	-3782
▁ter	-3783
▁thê	-3784
▁trệ	-3785
▁vác	-3786
▁vãi	-3787
▁vằn	-3788
▁xui	-3789
▁xốp	-3790
▁đát	-3791
▁đân	-3792
▁ưng	-3793
undai	-3794
▁hiên	-3795
▁hách	-3796
▁mênh	-3797
▁ngưu	-3798
▁ngắt	-3799
▁ngời	-3800
▁ngứa	-3801
▁nhàm	-3802
▁nhào	-3803
▁nòng	-3804
▁pênh	-3805
▁quầy	-3806
▁sành	-3807
▁teen	-3808
▁thòi	-3809
▁trau	-3810
▁trán	-3811
▁trút	-3812
▁yami	-3813
▁aegis	-3814
▁chông	-3815
▁chằng	-3816
▁click	-3817
▁nghẹt	-3818
▁ngoạn	-3819
▁nhuộm	-3820
▁phộng	-3821
▁thình	-3822
▁thủng	-3823
▁chiêng	-3824
▁choáng	-3825
▁marker	-3826
▁online	-3827
▁hyundai	-3828
▁michael	-3829
bi	-3830
by	-3831
oc	-3832
ot	-3833
úm	-3834
ẽn	-3835
ate	-3836
bum	-3837
com	-3838
lly	-3839
ork	-3840
sia	-3841
▁ar	-3842
▁bọ	-3843
▁bự	-3844
▁cồ	-3845
▁rò	-3846
▁sp	-3847
▁sỉ	-3848
▁vn	-3849
iềng	-3850
land	-3851
ping	-3852
ptop	-3853
▁ali	-3854
▁ang	-3855
▁bết	-3856
▁bỉm	-3857
▁bịa	-3858
▁bọt	-3859
▁bổn	-3860
▁cau	-3861
▁cpu	-3862
▁cóp	-3863
▁cựa	-3864
▁dấn	-3865
▁for	-3866
▁giỏ	-3867
▁gầm	-3868
▁húc	-3869
▁hằn	-3870
▁hệt	-3871
▁hời	-3872
▁kên	-3873
▁lee	-3874
▁lán	-3875
▁lết	-3876
▁lợp	-3877
▁méo	-3878
▁ngụ	-3879
▁nhả	-3880
▁nái	-3881
▁nêm	-3882
▁nóc	-3883
▁nạo	-3884
▁nấy	-3885
▁nến	-3886
▁phả	-3887
▁pác	-3888
▁pát	-3889
▁pây	-3890
▁sub	-3891
▁sáo	-3892
▁sầm	-3893
▁sẹo	-3894
▁ton	-3895
▁vùi	-3896
▁vụn	-3897
▁xộn	-3898
▁đéo	-3899
▁đực	-3900
jamin	-3901
▁chài	-3902
▁chải	-3903
▁chảo	-3904
▁ganh	-3905
▁guốc	-3906
▁hong	-3907
▁hoán	-3908
▁hạch	-3909
▁khảm	-3910
▁lếch	-3911
▁ngạt	-3912
▁nháy	-3913
▁nhọc	-3914
▁niệu	-3915
▁phồn	-3916
▁rock	-3917
▁sảng	-3918
▁thâu	-3919
▁thóc	-3920
▁trim	-3921
▁trâm	-3922
▁trót	-3923
▁táng	-3924
▁tưng	-3925
▁điểu	-3926
▁album	-3927
▁chuộc	-3928
▁khăng	-3929
▁nguội	-3930
▁ngóng	-3931
▁thiều	-3932
▁thoạt	-3933
▁donald	-3934
▁laptop	-3935
▁thuyên	-3936
▁benjamin	-3937
▁malaysia	-3938
▁necromorphs	-3939
di	-3940
ed	-3941
hn	-3942
ht	-3943
im	-3944
og	-3945
om	-3946
rb	-3947
sy	-3948
íc	-3949
ín	-3950
▁ù	-3951
▁ỷ	-3952
ama	-3953
ela	-3954
ood	-3955
pet	-3956
rus	-3957
str	-3958
ươu	-3959
▁cê	-3960
▁hú	-3961
▁lõ	-3962
▁mỗ	-3963
▁nỉ	-3964
▁rổ	-3965
▁sộ	-3966
▁vá	-3967
▁vế	-3968
▁xị	-3969
▁ẵm	-3970
▁ồi	-3971
ashi	-3972
atso	-3973
baba	-3974
llyw	-3975
ower	-3976
ribe	-3977
uego	-3978
▁bâu	-3979
▁bục	-3980
▁cạc	-3981
▁cộc	-3982
▁cớt	-3983
▁cừu	-3984
▁dan	-3985
▁dìu	-3986
▁dĩa	-3987
▁giô	-3988
▁gáp	-3989
▁gập	-3990
▁gật	-3991
▁gặm	-3992
▁hye	-3993
▁háp	-3994
▁hạc	-3995
▁icu	-3996
▁lèo	-3997
▁lép	-3998
▁lìa	-3999
▁lạy	-4000
▁lằn	-4001
▁mod	-4002
▁mót	-4003
▁mẹo	-4004
▁ngừ	-4005
▁nhỡ	-4006
▁nập	-4007
▁nếm	-4008
▁nọc	-4009
▁nứa	-4010
▁phò	-4011
▁pôm	-4012
▁rig	-4013
▁róc	-4014
▁rúp	-4015
▁sun	-4016
▁sán	-4017
▁séc	-4018
▁săm	-4019
▁sắn	-4020
▁sứt	-4021
▁trĩ	-4022
▁trơ	-4023
▁trổ	-4024
▁téc	-4025
▁tùm	-4026
▁tơi	-4027
▁tủi	-4028
▁usb	-4029
▁uầy	-4030
▁uốn	-4031
▁von	-4032
▁vàm	-4033
▁vôn	-4034
▁vẫy	-4035
▁vệt	-4036
▁xan	-4037
▁xáo	-4038
▁xơn	-4039
▁xỉu	-4040
▁ăng	-4041
▁đút	-4042
▁đệm	-4043
kythu	-4044
ngton	-4045
▁beat	-4046
▁buff	-4047
▁buốt	-4048
▁bính	-4049
▁bịch	-4050
▁chèn	-4051
▁iran	-4052
▁john	-4053
▁khoẻ	-4054
▁khâm	-4055
▁loay	-4056
▁love	-4057
▁lượm	-4058
▁mích	-4059
▁ngủi	-4060
▁nhét	-4061
▁nhơn	-4062
▁nhấc	-4063
▁nhẹn	-4064
▁nick	-4065
▁phin	-4066
▁quây	-4067
▁quật	-4068
▁rang	-4069
▁rãnh	-4070
▁rếch	-4071
▁thán	-4072
▁thẳm	-4073
▁toại	-4074
▁vồng	-4075
▁đong	-4076
▁chiểu	-4077
▁chuồn	-4078
▁fuego	-4079
▁giăng	-4080
▁mương	-4081
▁ngoặt	-4082
▁phồng	-4083
▁thoóc	-4084
▁thoắt	-4085
▁vapet	-4086
▁washi	-4087
▁willi	-4088
llywood	-4089
pington	-4090
▁canada	-4091
▁chưởng	-4092
▁nghiền	-4093
▁alibaba	-4094
▁inkythu	-4095
▁fuegoleon	-4096
▁hollywood	-4097
▁orpington	-4098
▁washington	-4099
▁inkythuatso	-4100
if	-4101
tx	-4102
vi	-4103
xi	-4104
xo	-4105
▁ì	-4106
cot	-4107
ean	-4108
gen	-4109
ger	-4110
ish	-4111
lon	-4112
mar	-4113
nel	-4114
ram	-4115
vid	-4116
ệch	-4117
▁ad	-4118
▁bợ	-4119
▁gã	-4120
▁hỉ	-4121
▁hớ	-4122
▁lẹ	-4123
▁ná	-4124
▁nị	-4125
▁sò	-4126
▁sọ	-4127
▁tì	-4128
▁vồ	-4129
▁éo	-4130
▁òa	-4131
alor	-4132
ilet	-4133
lion	-4134
tain	-4135
tube	-4136
▁bec	-4137
▁chơ	-4138
▁cáu	-4139
▁cẩu	-4140
▁cằn	-4141
▁cụp	-4142
▁dát	-4143
▁dòm	-4144
▁dúi	-4145
▁gio	-4146
▁giu	-4147
▁góa	-4148
▁hòm	-4149
▁hờn	-4150
▁ing	-4151
▁khố	-4152
▁lem	-4153
▁lip	-4154
▁mân	-4155
▁méc	-4156
▁múi	-4157
▁mún	-4158
▁mấu	-4159
▁mứt	-4160
▁nit	-4161
▁năn	-4162
▁nặc	-4163
▁nết	-4164
▁oóc	-4165
▁pai	-4166
▁pan	-4167
▁pro	-4168
▁ria	-4169
▁rim	-4170
▁rum	-4171
▁rần	-4172
▁rợn	-4173
▁síp	-4174
▁sạp	-4175
▁sần	-4176
▁tẩu	-4177
▁tằm	-4178
▁tụy	-4179
▁ván	-4180
▁vút	-4181
▁vặn	-4182
▁vừn	-4183
▁đun	-4184
▁đốm	-4185
▁acer	-4186
▁bung	-4187
▁chin	-4188
▁chét	-4189
▁chít	-4190
▁chùi	-4191
▁chẵn	-4192
▁chồi	-4193
▁chổi	-4194
▁chớp	-4195
▁chời	-4196
▁cuốc	-4197
▁giầy	-4198
▁lady	-4199
▁lộng	-4200
▁lừng	-4201
▁lửng	-4202
▁nang	-4203
▁ngẫm	-4204
▁ngửa	-4205
▁nhái	-4206
▁nhăn	-4207
▁nhện	-4208
▁phui	-4209
▁phất	-4210
▁pích	-4211
▁quất	-4212
▁quẩn	-4213
▁rình	-4214
▁ròng	-4215
▁rưng	-4216
▁saxo	-4217
▁scot	-4218
▁suôn	-4219
▁sưởi	-4220
▁sảnh	-4221
▁sủng	-4222
▁tanh	-4223
▁thoi	-4224
▁thót	-4225
▁tony	-4226
▁toát	-4227
▁vụng	-4228
▁york	-4229
▁đãng	-4230
tainer	-4231
▁asean	-4232
▁canon	-4233
▁dượng	-4234
▁honda	-4235
▁huyệt	-4236
▁hydro	-4237
▁luyến	-4238
▁luông	-4239
▁ngoãn	-4240
▁nhang	-4241
▁nhích	-4242
▁phích	-4243
▁subsc	-4244
▁syria	-4245
▁thinh	-4246
▁truất	-4247
▁camera	-4248
▁khuynh	-4249
▁nguyền	-4250
▁ngượng	-4251
▁toilet	-4252
▁channel	-4253
▁william	-4254
▁youtube	-4255
▁container	-4256
cn	-4257
de	-4258
kr	-4259
la	-4260
lf	-4261
ne	-4262
ếc	-4263
ợp	-4264
▁'	-4265
▁ỉ	-4266
ash	-4267
don	-4268
ion	-4269
ite	-4270
ker	-4271
ori	-4272
rap	-4273
rid	-4274
ých	-4275
▁bỡ	-4276
▁eh	-4277
▁fe	-4278
▁ge	-4279
▁hù	-4280
▁lị	-4281
▁rè	-4282
▁sc	-4283
▁wy	-4284
▁ối	-4285
bank	-4286
lymp	-4287
ogle	-4288
ollo	-4289
site	-4290
▁beo	-4291
▁bói	-4292
▁bôn	-4293
▁búp	-4294
▁bơn	-4295
▁caf	-4296
▁cre	-4297
▁còi	-4298
▁cúc	-4299
▁cụt	-4300
▁day	-4301
▁duệ	-4302
▁dái	-4303
▁dét	-4304
▁dùm	-4305
▁dằn	-4306
▁dặc	-4307
▁gào	-4308
▁gáy	-4309
▁gôn	-4310
▁gậy	-4311
▁hau	-4312
▁hoá	-4313
▁kiu	-4314
▁kèo	-4315
▁lôn	-4316
▁lẩn	-4317
▁miu	-4318
▁míc	-4319
▁mút	-4320
▁mải	-4321
▁mọt	-4322
▁mớt	-4323
▁ngổ	-4324
▁nhủ	-4325
▁nạt	-4326
▁nấc	-4327
▁nấp	-4328
▁nắn	-4329
▁nộm	-4330
▁oắt	-4331
▁peo	-4332
▁quạ	-4333
▁rêu	-4334
▁rìa	-4335
▁rơm	-4336
▁sil	-4337
▁sóp	-4338
▁súy	-4339
▁sẫm	-4340
▁sớt	-4341
▁sục	-4342
▁tép	-4343
▁tột	-4344
▁tủy	-4345
▁usg	-4346
▁vii	-4347
▁wor	-4348
▁xia	-4349
▁xua	-4350
▁xấp	-4351
▁xẻo	-4352
▁xịn	-4353
▁xừn	-4354
▁đóc	-4355
▁đọa	-4356
andot	-4357
▁blog	-4358
▁chốc	-4359
▁core	-4360
▁cõng	-4361
▁cưỡi	-4362
▁cược	-4363
▁cồng	-4364
▁gaga	-4365
▁giun	-4366
▁giồi	-4367
▁gàng	-4368
▁hoay	-4369
▁hãnh	-4370
▁hươu	-4371
▁ngải	-4372
▁nhuệ	-4373
▁nhấm	-4374
▁nung	-4375
▁nếch	-4376
▁oánh	-4377
▁park	-4378
▁phèn	-4379
▁sình	-4380
▁thét	-4381
▁thụt	-4382
▁tiễu	-4383
▁trãi	-4384
▁vích	-4385
▁xiêm	-4386
▁điếc	-4387
▁black	-4388
▁cabin	-4389
▁chước	-4390
▁chườm	-4391
▁ghiền	-4392
▁guých	-4393
▁khùng	-4394
▁luyên	-4395
▁nghẽn	-4396
▁nhửng	-4397
▁olymp	-4398
▁phách	-4399
▁thiếp	-4400
▁thuýt	-4401
▁trũng	-4402
rapower	-4403
▁apollo	-4404
▁google	-4405
▁khoanh	-4406
▁kellion	-4407
▁website	-4408
▁wyandot	-4409
▁saxophone	-4410
▁subscribe	-4411
▁terrapower	-4412
ca	-4413
ki	-4414
ld	-4415
we	-4416
òe	-4417
òm	-4418
ýp	-4419
ủa	-4420
ửu	-4421
▁ò	-4422
ail	-4423
end	-4424
gan	-4425
gic	-4426
ine	-4427
ley	-4428
max	-4429
pec	-4430
ssa	-4431
val	-4432
xit	-4433
zel	-4434
zon	-4435
ấng	-4436
▁cr	-4437
▁fu	-4438
▁ku	-4439
▁lỵ	-4440
▁mó	-4441
▁mớ	-4442
▁nỡ	-4443
▁om	-4444
▁pl	-4445
▁sl	-4446
▁sà	-4447
▁sỡ	-4448
▁tv	-4449
▁tồ	-4450
▁vo	-4451
▁vạ	-4452
▁wa	-4453
▁éc	-4454
▁ói	-4455
▁ùa	-4456
▁ảm	-4457
▁ần	-4458
▁ổi	-4459
asis	-4460
mart	-4461
ment	-4462
outh	-4463
rbon	-4464
thub	-4465
ules	-4466
ware	-4467
▁air	-4468
▁bua	-4469
▁bấp	-4470
▁bầm	-4471
▁cec	-4472
▁cor	-4473
▁cun	-4474
▁cún	-4475
▁cạo	-4476
▁cốm	-4477
▁cộm	-4478
▁cợt	-4479
▁củi	-4480
▁dia	-4481
▁dua	-4482
▁dẫm	-4483
▁gim	-4484
▁gêm	-4485
▁gơn	-4486
▁gục	-4487
▁har	-4488
▁hin	-4489
▁hot	-4490
▁hoà	-4491
▁híp	-4492
▁hùm	-4493
▁hẻo	-4494
▁hột	-4495
▁hợt	-4496
▁hụi	-4497
▁kai	-4498
▁khờ	-4499
▁kyo	-4500
▁kẹp	-4501
▁kịt	-4502
▁lia	-4503
▁liv	-4504
▁lác	-4505
▁láo	-4506
▁lưn	-4507
▁lẫy	-4508
▁max	-4509
▁mer	-4510
▁net	-4511
▁ngọ	-4512
▁nhũ	-4513
▁nhọ	-4514
▁náu	-4515
▁núp	-4516
▁nẻo	-4517
▁nực	-4518
▁pam	-4519
▁pet	-4520
▁phỉ	-4521
▁pua	-4522
▁ray	-4523
▁rtx	-4524
▁róp	-4525
▁rôm	-4526
▁rạc	-4527
▁rọi	-4528
▁sải	-4529
▁sấp	-4530
▁sụn	-4531
▁sứa	-4532
▁tab	-4533
▁thỉ	-4534
▁trồ	-4535
▁trớ	-4536
▁tóp	-4537
▁tẩm	-4538
▁vun	-4539
▁víp	-4540
▁vòm	-4541
▁vắn	-4542
▁vựa	-4543
▁xép	-4544
▁xòe	-4545
▁xói	-4546
▁xúi	-4547
▁xẩm	-4548
▁yếm	-4549
▁đin	-4550
▁điu	-4551
▁đót	-4552
▁đờn	-4553
ashin	-4554
ermax	-4555
ption	-4556
riend	-4557
ssage	-4558
▁asil	-4559
▁assy	-4560
▁axit	-4561
▁baby	-4562
▁bảnh	-4563
▁bỉnh	-4564
▁cang	-4565
▁cann	-4566
▁chác	-4567
▁chòi	-4568
▁chần	-4569
▁chắp	-4570
▁cuộn	-4571
▁diết	-4572
▁gang	-4573
▁goan	-4574
▁guôn	-4575
▁hanh	-4576
▁hinh	-4577
▁hoắc	-4578
▁jenn	-4579
▁jess	-4580
▁khét	-4581
▁live	-4582
▁liềm	-4583
▁loét	-4584
▁meow	-4585
▁mini	-4586
▁ngán	-4587
▁ngát	-4588
▁ngùi	-4589
▁ngút	-4590
▁ngạo	-4591
▁ngửi	-4592
▁nhoi	-4593
▁nhâm	-4594
▁nhờn	-4595
▁phít	-4596
▁plym	-4597
▁rành	-4598
▁rườm	-4599
▁thốt	-4600
▁tiệp	-4601
▁tour	-4602
▁trét	-4603
▁trĩu	-4604
▁trồi	-4605
▁trợn	-4606
▁tuôn	-4607
▁tuột	-4608
▁vung	-4609
▁váng	-4610
▁vênh	-4611
▁xiếc	-4612
▁đanh	-4613
▁điếm	-4614
▁chảnh	-4615
▁email	-4616
▁gióng	-4617
▁khuấy	-4618
▁khước	-4619
▁luống	-4620
▁nghêu	-4621
▁nozel	-4622
▁phượt	-4623
▁riềng	-4624
▁thặng	-4625
▁valor	-4626
▁virus	-4627
▁xoang	-4628
▁carbon	-4629
▁choson	-4630
▁github	-4631
▁khuếch	-4632
▁market	-4633
▁nghiễm	-4634
▁nhoáng	-4635
▁serama	-4636
▁stasis	-4637
▁comment	-4638
▁enermax	-4639
▁massage	-4640
▁modules	-4641
▁olympic	-4642
▁plymouth	-4643
▁vinashin	-4644
▁wyandotte	-4645
cc	-4646
ee	-4647
ồm	-4648
ủi	-4649
ừm	-4650
aul	-4651
biz	-4652
der	-4653
dol	-4654
ero	-4655
eru	-4656
gap	-4657
ica	-4658
iew	-4659
ium	-4660
kie	-4661
mal	-4662
man	-4663
nam	-4664
ort	-4665
rea	-4666
rey	-4667
rot	-4668
tal	-4669
van	-4670
ýnh	-4671
▁ah	-4672
▁bb	-4673
▁bở	-4674
▁dế	-4675
▁gl	-4676
▁gỉ	-4677
▁hứ	-4678
▁hỷ	-4679
▁lé	-4680
▁lố	-4681
▁mủ	-4682
▁pc	-4683
▁rú	-4684
▁sì	-4685
▁sồ	-4686
▁tẻ	-4687
▁tỵ	-4688
▁vó	-4689
▁xổ	-4690
▁én	-4691
▁íc	-4692
▁óp	-4693
▁đớ	-4694
▁ẩu	-4695
▁ập	-4696
▁ắt	-4697
atin	-4698
azon	-4699
brid	-4700
esel	-4701
esti	-4702
ifer	-4703
rael	-4704
rute	-4705
shan	-4706
tein	-4707
uyễn	-4708
viat	-4709
view	-4710
▁bot	-4711
▁bùa	-4712
▁bấc	-4713
▁bển	-4714
▁bời	-4715
▁bửu	-4716
▁cas	-4717
▁chừ	-4718
▁ciu	-4719
▁cáy	-4720
▁còm	-4721
▁cặc	-4722
▁cọp	-4723
▁cữu	-4724
▁dóc	-4725
▁dùi	-4726
▁dấy	-4727
▁dắc	-4728
▁dực	-4729
▁giẽ	-4730
▁gạc	-4731
▁gẫy	-4732
▁gắp	-4733
▁gỏi	-4734
▁gừn	-4735
▁hec	-4736
▁hâu	-4737
▁hên	-4738
▁hấu	-4739
▁hến	-4740
▁hốc	-4741
▁hốp	-4742
▁hổi	-4743
▁hởi	-4744
▁jus	-4745
▁kẽm	-4746
▁led	-4747
▁lou	-4748
▁láp	-4749
▁lòi	-4750
▁lôm	-4751
▁lạn	-4752
▁lẫm	-4753
▁lặc	-4754
▁lụi	-4755
▁mik	-4756
▁mên	-4757
▁mõm	-4758
▁mùn	-4759
▁mẩn	-4760
▁mửa	-4761
▁nin	-4762
▁nom	-4763
▁nài	-4764
▁nín	-4765
▁núc	-4766
▁pop	-4767
▁péc	-4768
▁píc	-4769
▁pắc	-4770
▁rem	-4771
▁ruy	-4772
▁rèm	-4773
▁rên	-4774
▁rầy	-4775
▁rụt	-4776
▁sos	-4777
▁sên	-4778
▁súa	-4779
▁sặc	-4780
▁sờn	-4781
▁tcn	-4782
▁thò	-4783
▁thệ	-4784
▁thồ	-4785
▁toa	-4786
▁trứ	-4787
▁tày	-4788
▁usd	-4789
▁uôi	-4790
▁uýt	-4791
▁vát	-4792
▁vót	-4793
▁vẹo	-4794
▁vợi	-4795
▁wet	-4796
▁xai	-4797
▁xéc	-4798
▁xỉn	-4799
▁xới	-4800
▁đia	-4801
▁đon	-4802
▁đéc	-4803
▁đùm	-4804
▁đậy	-4805
andal	-4806
icker	-4807
right	-4808
rnish	-4809
rogen	-4810
▁biếu	-4811
▁biền	-4812
▁bưng	-4813
▁bươn	-4814
▁bếch	-4815
▁bềnh	-4816
▁cafe	-4817
▁chat	-4818
▁chây	-4819
▁chôm	-4820
▁chùn	-4821
▁chĩa	-4822
▁chập	-4823
▁chỉn	-4824
▁chửa	-4825
▁dela	-4826
▁diệm	-4827
▁full	-4828
▁gièm	-4829
▁giét	-4830
▁giẫm	-4831
▁goăn	-4832
▁guýt	-4833
▁guốt	-4834
▁găng	-4835
▁haha	-4836
▁hích	-4837
▁idol	-4838
▁indy	-4839
▁logo	-4840
▁mobi	-4841
▁muội	-4842
▁mách	-4843
▁ngai	-4844
▁ngổn	-4845
▁ngớt	-4846
▁nhút	-4847
▁nhằn	-4848
▁nhẽo	-4849
▁nùng	-4850
▁nịnh	-4851
▁paul	-4852
▁peru	-4853
▁phia	-4854
▁suýt	-4855
▁sòng	-4856
▁tahi	-4857
▁taxi	-4858
▁thìa	-4859
▁thẫn	-4860
▁thằn	-4861
▁thớt	-4862
▁tiếu	-4863
▁toái	-4864
▁trói	-4865
▁trặc	-4866
▁trỗi	-4867
▁trụi	-4868
▁trụy	-4869
▁tuýp	-4870
▁tánh	-4871
▁tằng	-4872
▁uýnh	-4873
▁visa	-4874
▁văng	-4875
▁vựng	-4876
▁xoăn	-4877
▁xước	-4878
▁đấng	-4879
ardian	-4880
friend	-4881
strong	-4882
▁biếng	-4883
▁brute	-4884
▁corru	-4885
▁david	-4886
▁festi	-4887
▁guồng	-4888
▁khuân	-4889
▁layer	-4890
▁maria	-4891
▁muống	-4892
▁ngoặc	-4893
▁nguôi	-4894
▁ngùng	-4895
▁nhuần	-4896
▁phiệt	-4897
▁phone	-4898
▁phếch	-4899
▁share	-4900
▁suyễn	-4901
▁thuột	-4902
▁thúng	-4903
▁titan	-4904
▁tuner	-4905
▁world	-4906
viathan	-4907
▁amazon	-4908
▁choàng	-4909
▁diesel	-4910
▁iphone	-4911
▁israel	-4912
▁justin	-4913
▁nghinh	-4914
▁nhuyễn	-4915
▁review	-4916
▁silkie	-4917
▁babylon	-4918
▁cornish	-4919
▁creatin	-4920
▁jessica	-4921
▁scandal	-4922
▁showbiz	-4923
▁sticker	-4924
▁vietnam	-4925
▁delaware	-4926
▁festival	-4927
▁guardian	-4928
▁jennifer	-4929
▁langshan	-4930
▁nitrogen	-4931
▁scotland	-4932
▁leviathan	-4933
▁corruption	-4934
dp	-4935
ds	-4936
gb	-4937
ks	-4938
me	-4939
mo	-4940
po	-4941
ry	-4942
sp	-4943
tt	-4944
up	-4945
yo	-4946
ât	-4947
ía	-4948
ẹc	-4949
ởm	-4950
ợm	-4951
▁ụ	-4952
ali	-4953
ano	-4954
bel	-4955
eal	-4956
ett	-4957
ght	-4958
ham	-4959
ico	-4960
ier	-4961
ked	-4962
kis	-4963
mer	-4964
ple	-4965
rbo	-4966
ren	-4967
ric	-4968
sam	-4969
tch	-4970
thi	-4971
tor	-4972
tri	-4973
ẫng	-4974
▁cc	-4975
▁cd	-4976
▁cí	-4977
▁cữ	-4978
▁dà	-4979
▁dả	-4980
▁el	-4981
▁fa	-4982
▁fi	-4983
▁fo	-4984
▁gr	-4985
▁hũ	-4986
▁hế	-4987
▁hự	-4988
▁ko	-4989
▁ló	-4990
▁lù	-4991
▁mb	-4992
▁mé	-4993
▁mư	-4994
▁mề	-4995
▁mễ	-4996
▁mụ	-4997
▁mỳ	-4998
▁nẻ	-4999
▁nỏ	-5000
▁tp	-5001
▁tỳ	-5002
▁ua	-5003
▁uế	-5004
▁xx	-5005
▁xồ	-5006
▁xừ	-5007
▁za	-5008
▁àm	-5009
▁èn	-5010
▁đẽ	-5011
▁đọ	-5012
▁ẹt	-5013
agad	-5014
bert	-5015
dium	-5016
dsay	-5017
eric	-5018
king	-5019
lanh	-5020
page	-5021
phet	-5022
pson	-5023
rger	-5024
rian	-5025
ters	-5026
xico	-5027
yota	-5028
▁arm	-5029
▁băm	-5030
▁bấn	-5031
▁bặt	-5032
▁bớp	-5033
▁bụt	-5034
▁cen	-5035
▁cty	-5036
▁côm	-5037
▁cơi	-5038
▁cưu	-5039
▁cỏi	-5040
▁doi	-5041
▁dìa	-5042
▁dóp	-5043
▁dút	-5044
▁dất	-5045
▁dật	-5046
▁dền	-5047
▁dột	-5048
▁dừn	-5049
▁fol	-5050
▁gdp	-5051
▁gin	-5052
▁gpu	-5053
▁gun	-5054
▁gán	-5055
▁gãi	-5056
▁gép	-5057
▁gúc	-5058
▁gội	-5059
▁gớt	-5060
▁hal	-5061
▁hia	-5062
▁hua	-5063
▁huề	-5064
▁hàu	-5065
▁hóp	-5066
▁hớp	-5067
▁ios	-5068
▁kan	-5069
▁khè	-5070
▁khế	-5071
▁kén	-5072
▁líc	-5073
▁lõa	-5074
▁lõm	-5075
▁lẽo	-5076
▁lồi	-5077
▁med	-5078
▁met	-5079
▁mèn	-5080
▁măn	-5081
▁mạt	-5082
▁mẩu	-5083
▁mận	-5084
▁mỉa	-5085
▁mịt	-5086
▁ngò	-5087
▁nhè	-5088
▁nám	-5089
▁nòi	-5090
▁phũ	-5091
▁pix	-5092
▁pom	-5093
▁pôn	-5094
▁pớt	-5095
▁quo	-5096
▁quệ	-5097
▁rám	-5098
▁râm	-5099
▁rìu	-5100
▁ríp	-5101
▁rầu	-5102
▁rốp	-5103
▁rủa	-5104
▁rứa	-5105
▁seb	-5106
▁sel	-5107
▁sex	-5108
▁shi	-5109
▁sàm	-5110
▁sác	-5111
▁sép	-5112
▁sảo	-5113
▁sấm	-5114
▁sến	-5115
▁teo	-5116
▁thố	-5117
▁tuỳ	-5118
▁tén	-5119
▁tía	-5120
▁tót	-5121
▁túm	-5122
▁tạt	-5123
▁tấc	-5124
▁tấy	-5125
▁tầu	-5126
▁tậu	-5127
▁tớt	-5128
▁tửu	-5129
▁ukr	-5130
▁vic	-5131
▁vái	-5132
▁vén	-5133
▁vía	-5134
▁víu	-5135
▁xâu	-5136
▁xèo	-5137
▁xưn	-5138
▁xắt	-5139
▁đay	-5140
▁đom	-5141
▁đóm	-5142
▁đơm	-5143
▁đềm	-5144
▁ướp	-5145
lines	-5146
rnier	-5147
▁acid	-5148
▁anna	-5149
▁beck	-5150
▁buồm	-5151
▁báng	-5152
▁chip	-5153
▁chíp	-5154
▁chói	-5155
▁chắt	-5156
▁chằm	-5157
▁chừa	-5158
▁coop	-5159
▁cọng	-5160
▁dead	-5161
▁dích	-5162
▁dĩnh	-5163
▁dẳng	-5164
▁gióp	-5165
▁gươm	-5166
▁hiềm	-5167
▁hẫng	-5168
▁hừng	-5169
▁ital	-5170
▁kali	-5171
▁kham	-5172
▁khom	-5173
▁khản	-5174
▁khất	-5175
▁khắm	-5176
▁khịt	-5177
▁khỏa	-5178
▁kỉnh	-5179
▁liếp	-5180
▁luẩn	-5181
▁luồn	-5182
▁lâng	-5183
▁lình	-5184
▁lúng	-5185
▁lạch	-5186
▁manx	-5187
▁miết	-5188
▁moóc	-5189
▁mướp	-5190
▁mọng	-5191
▁nanh	-5192
▁neil	-5193
▁ngót	-5194
▁ngẩn	-5195
▁ngợm	-5196
▁nhàu	-5197
▁nhác	-5198
▁nhây	-5199
▁nhão	-5200
▁nhép	-5201
▁nhòa	-5202
▁nude	-5203
▁nách	-5204
▁pham	-5205
▁phàm	-5206
▁quyn	-5207
▁quắt	-5208
▁quặn	-5209
▁reng	-5210
▁roét	-5211
▁ruổi	-5212
▁suga	-5213
▁sếch	-5214
▁sửng	-5215
▁thát	-5216
▁thìn	-5217
▁thía	-5218
▁thùi	-5219
▁tips	-5220
▁toản	-5221
▁tren	-5222
▁troi	-5223
▁tróc	-5224
▁tróp	-5225
▁trắm	-5226
▁trỉa	-5227
▁tuất	-5228
▁tuồn	-5229
▁tâng	-5230
▁urea	-5231
▁vlog	-5232
▁vừng	-5233
▁xiết	-5234
▁zeal	-5235
▁đếch	-5236
inbank	-5237
kistan	-5238
▁apple	-5239
▁austr	-5240
▁carey	-5241
▁chịch	-5242
▁chửng	-5243
▁gioóc	-5244
▁glenn	-5245
▁gượng	-5246
▁hecta	-5247
▁henri	-5248
▁khoét	-5249
▁light	-5250
▁loanh	-5251
▁logic	-5252
▁loãng	-5253
▁miley	-5254
▁momen	-5255
▁nghẹn	-5256
▁ngách	-5257
▁ngông	-5258
▁nobel	-5259
▁pence	-5260
▁phàng	-5261
▁phình	-5262
▁phông	-5263
▁phăng	-5264
▁piano	-5265
▁putin	-5266
▁quáng	-5267
▁shinh	-5268
▁space	-5269
▁sumer	-5270
▁thiến	-5271
▁thoen	-5272
▁thuôn	-5273
▁tròng	-5274
▁tuông	-5275
agadori	-5276
▁angela	-5277
▁burger	-5278
▁cannes	-5279
▁giương	-5280
▁mexico	-5281
▁mobile	-5282
▁muasam	-5283
▁robert	-5284
▁sodium	-5285
▁toyota	-5286
▁truyển	-5287
hahahaha	-5288
▁assyria	-5289
▁fanpage	-5290
▁garnier	-5291
▁lindsay	-5292
▁protein	-5293
▁vietgap	-5294
▁zealand	-5295
▁airlines	-5296
▁coopmart	-5297
▁pakistan	-5298
▁sebright	-5299
▁armstrong	-5300
▁onagadori	-5301
▁indyfriend	-5302
▁vietinbank	-5303
▁muasamnhanh	-5304
ah	-5305
ep	-5306
ez	-5307
ip	-5308
pi	-5309
pl	-5310
py	-5311
qt	-5312
ti	-5313
ua	-5314
va	-5315
vy	-5316
õa	-5317
ọp	-5318
ộp	-5319
▁ú	-5320
▁ị	-5321
▁ợ	-5322
▁ỳ	-5323
bia	-5324
bur	-5325
cer	-5326
chk	-5327
dio	-5328
een	-5329
elg	-5330
els	-5331
erb	-5332
erm	-5333
ern	-5334
esh	-5335
ete	-5336
for	-5337
ics	-5338
ifi	-5339
ila	-5340
ise	-5341
kia	-5342
let	-5343
lic	-5344
lle	-5345
lor	-5346
low	-5347
nah	-5348
nip	-5349
ory	-5350
pal	-5351
per	-5352
phy	-5353
pon	-5354
roc	-5355
tel	-5356
ucc	-5357
uet	-5358
wit	-5359
ượp	-5360
ẩng	-5361
ềnh	-5362
ểnh	-5363
▁ay	-5364
▁by	-5365
▁dj	-5366
▁dó	-5367
▁dú	-5368
▁fl	-5369
▁fm	-5370
▁gm	-5371
▁gí	-5372
▁hd	-5373
▁hz	-5374
▁hụ	-5375
▁hừ	-5376
▁ia	-5377
▁kw	-5378
▁lả	-5379
▁lỳ	-5380
▁mr	-5381
▁ms	-5382
▁mè	-5383
▁mợ	-5384
▁mỷ	-5385
▁np	-5386
▁oi	-5387
▁ps	-5388
▁qr	-5389
▁rh	-5390
▁sú	-5391
▁sừ	-5392
▁tè	-5393
▁wh	-5394
▁wi	-5395
▁ye	-5396
▁yo	-5397
▁zi	-5398
▁zô	-5399
▁íp	-5400
▁úa	-5401
▁ưm	-5402
▁ất	-5403
▁ọp	-5404
▁ới	-5405
▁ợp	-5406
aine	-5407
anet	-5408
aoke	-5409
ecom	-5410
eing	-5411
hire	-5412
ider	-5413
ltan	-5414
mosa	-5415
ooth	-5416
oton	-5417
pire	-5418
ress	-5419
rist	-5420
scar	-5421
ssan	-5422
ston	-5423
sung	-5424
tish	-5425
tman	-5426
ture	-5427
vard	-5428
weet	-5429
▁aby	-5430
▁ads	-5431
▁ash	-5432
▁bks	-5433
▁bob	-5434
▁bqt	-5435
▁bro	-5436
▁bân	-5437
▁bẹp	-5438
▁bỉu	-5439
▁bịu	-5440
▁bụa	-5441
▁cal	-5442
▁ceo	-5443
▁chỏ	-5444
▁chử	-5445
▁cru	-5446
▁càm	-5447
▁câm	-5448
▁cói	-5449
▁cùi	-5450
▁cạm	-5451
▁cầy	-5452
▁cỗi	-5453
▁cừn	-5454
▁deo	-5455
▁dis	-5456
▁dãn	-5457
▁dêm	-5458
▁dít	-5459
▁díu	-5460
▁dận	-5461
▁dậu	-5462
▁dặt	-5463
▁dỗi	-5464
▁dờn	-5465
▁dụm	-5466
▁elf	-5467
▁fps	-5468
▁gas	-5469
▁ghẹ	-5470
▁giũ	-5471
▁giở	-5472
▁goe	-5473
▁guê	-5474
▁gài	-5475
▁gưn	-5476
▁gấm	-5477
▁gẩy	-5478
▁gắm	-5479
▁gồi	-5480
▁hem	-5481
▁hic	-5482
▁huê	-5483
▁hói	-5484
▁hùa	-5485
▁húy	-5486
▁hặc	-5487
▁hộc	-5488
▁hớn	-5489
▁kar	-5490
▁khẽ	-5491
▁kạn	-5492
▁loi	-5493
▁lày	-5494
▁lùa	-5495
▁lơi	-5496
▁lấm	-5497
▁lẩm	-5498
▁lẩu	-5499
▁lẻn	-5500
▁lẻo	-5501
▁lỏi	-5502
▁mão	-5503
▁mòi	-5504
▁múc	-5505
▁mếc	-5506
▁nhạ	-5507
▁nua	-5508
▁nẫy	-5509
▁nậm	-5510
▁nịu	-5511
▁nừa	-5512
▁oxi	-5513
▁oái	-5514
▁oét	-5515
▁oăm	-5516
▁poa	-5517
▁pon	-5518
▁pun	-5519
▁páp	-5520
▁pín	-5521
▁pơn	-5522
▁pắp	-5523
▁qkr	-5524
▁quơ	-5525
▁rad	-5526
▁res	-5527
▁reu	-5528
▁rex	-5529
▁roa	-5530
▁ros	-5531
▁rơn	-5532
▁rảo	-5533
▁rắm	-5534
▁rết	-5535
▁rờn	-5536
▁rứt	-5537
▁spa	-5538
▁sùm	-5539
▁sẩy	-5540
▁sọt	-5541
▁sồn	-5542
▁sợt	-5543
▁sủa	-5544
▁thy	-5545
▁thó	-5546
▁trờ	-5547
▁tum	-5548
▁tuế	-5549
▁táp	-5550
▁tắn	-5551
▁tỉm	-5552
▁tịt	-5553
▁tọt	-5554
▁tởm	-5555
▁tủa	-5556
▁tủm	-5557
▁usm	-5558
▁vẩy	-5559
▁vẹt	-5560
▁vốt	-5561
▁vớp	-5562
▁vụt	-5563
▁vữa	-5564
▁woo	-5565
▁xuể	-5566
▁xàm	-5567
▁xôm	-5568
▁xõa	-5569
▁xúm	-5570
▁xăn	-5571
▁xạo	-5572
▁xẹp	-5573
▁xớt	-5574
▁yêm	-5575
▁yểu	-5576
▁đác	-5577
▁đáu	-5578
▁đíp	-5579
▁đưn	-5580
▁đận	-5581
▁đằm	-5582
▁địt	-5583
▁đốp	-5584
▁độn	-5585
▁đớt	-5586
▁ửng	-5587
chkin	-5588
eroin	-5589
essor	-5590
ganic	-5591
ormal	-5592
place	-5593
thius	-5594
toria	-5595
typec	-5596
uccle	-5597
vider	-5598
▁asta	-5599
▁bank	-5600
▁belg	-5601
▁beng	-5602
▁biều	-5603
▁boom	-5604
▁buốc	-5605
▁bướu	-5606
▁cali	-5607
▁caro	-5608
▁chàm	-5609
▁chòm	-5610
▁chơn	-5611
▁chạn	-5612
▁chấu	-5613
▁chẻo	-5614
▁chồn	-5615
▁chội	-5616
▁chộn	-5617
▁chớm	-5618
▁chớt	-5619
▁clin	-5620
▁comp	-5621
▁cóng	-5622
▁cụng	-5623
▁dooc	-5624
▁duẩn	-5625
▁dách	-5626
▁dúng	-5627
▁dằng	-5628
▁feet	-5629
▁fold	-5630
▁ford	-5631
▁fram	-5632
▁ghẹo	-5633
▁gioi	-5634
▁giãi	-5635
▁gióc	-5636
▁golf	-5637
▁gram	-5638
▁guất	-5639
▁hoen	-5640
▁hoặt	-5641
▁hòng	-5642
▁hẵng	-5643
▁hửng	-5644
▁indo	-5645
▁kate	-5646
▁kháu	-5647
▁khấn	-5648
▁khịa	-5649
▁king	-5650
▁kiển	-5651
▁kong	-5652
▁kyne	-5653
▁kình	-5654
▁link	-5655
▁liếc	-5656
▁lõng	-5657
▁lườn	-5658
▁lỉnh	-5659
▁lọai	-5660
▁lụng	-5661
▁mike	-5662
▁mino	-5663
▁máng	-5664
▁mãng	-5665
▁mướt	-5666
▁mịch	-5667
▁napo	-5668
▁nghê	-5669
▁ngoa	-5670
▁ngáy	-5671
▁ngóc	-5672
▁ngấm	-5673
▁ngầu	-5674
▁ngợp	-5675
▁nhen	-5676
▁nheo	-5677
▁nhin	-5678
▁nhài	-5679
▁nhìu	-5680
▁nhót	-5681
▁nhún	-5682
▁nhầy	-5683
▁nhẩn	-5684
▁nhẹt	-5685
▁nhột	-5686
▁nhớt	-5687
▁nhợt	-5688
▁nhụy	-5689
▁nành	-5690
▁nũng	-5691
▁phùn	-5692
▁phạc	-5693
▁phẹt	-5694
▁phốp	-5695
▁păng	-5696
▁quai	-5697
▁quép	-5698
▁quăn	-5699
▁quẩy	-5700
▁quặc	-5701
▁rinh	-5702
▁roay	-5703
▁rông	-5704
▁soét	-5705
▁tenn	-5706
▁thun	-5707
▁thuỷ	-5708
▁thây	-5709
▁thảy	-5710
▁thẹn	-5711
▁thỉu	-5712
▁thỏi	-5713
▁thốc	-5714
▁thới	-5715
▁tiệt	-5716
▁tong	-5717
▁triu	-5718
▁tráo	-5719
▁trát	-5720
▁trìu	-5721
▁trôn	-5722
▁trạc	-5723
▁trảm	-5724
▁trấu	-5725
▁trẫm	-5726
▁trớt	-5727
▁twit	-5728
▁tưởi	-5729
▁tạnh	-5730
▁uric	-5731
▁uổng	-5732
▁verm	-5733
▁vông	-5734
▁wifi	-5735
▁xiêu	-5736
▁xoàn	-5737
▁xệch	-5738
▁your	-5739
▁đoản	-5740
▁đĩnh	-5741
▁đượm	-5742
acking	-5743
alines	-5744
erbald	-5745
erican	-5746
loween	-5747
niproc	-5748
otonin	-5749
ponics	-5750
pshire	-5751
vannah	-5752
▁angel	-5753
▁bluet	-5754
▁bướng	-5755
▁canxi	-5756
▁chong	-5757
▁chuýt	-5758
▁chuốt	-5759
▁chệch	-5760
▁coong	-5761
▁crete	-5762
▁cuông	-5763
▁giong	-5764
▁giàng	-5765
▁giồng	-5766
▁huyên	-5767
▁hường	-5768
▁italy	-5769
▁kelso	-5770
▁khiên	-5771
▁khoải	-5772
▁khoắn	-5773
▁khỉnh	-5774
▁louis	-5775
▁miêng	-5776
▁nepal	-5777
▁nghét	-5778
▁nghía	-5779
▁ngoằn	-5780
▁ngước	-5781
▁ngạnh	-5782
▁ngẩng	-5783
▁nhõng	-5784
▁nhăng	-5785
▁nhảnh	-5786
▁nhằng	-5787
▁nhếch	-5788
▁nokia	-5789
▁oscar	-5790
▁paran	-5791
▁quýnh	-5792
▁radio	-5793
▁sarah	-5794
▁siêng	-5795
▁soong	-5796
▁state	-5797
▁tarot	-5798
▁thiệc	-5799
▁thong	-5800
▁thênh	-5801
▁thướt	-5802
▁thừng	-5803
▁triền	-5804
▁troét	-5805
▁truýt	-5806
▁turbo	-5807
▁tweet	-5808
▁typec	-5809
combank	-5810
▁altman	-5811
▁boeing	-5812
▁casino	-5813
▁chanel	-5814
▁cruise	-5815
▁empire	-5816
▁heroin	-5817
▁hybrid	-5818
▁khuông	-5819
▁livest	-5820
▁mariah	-5821
▁mercer	-5822
▁nature	-5823
▁ngưởng	-5824
▁planet	-5825
▁stress	-5826
▁sultan	-5827
▁thoong	-5828
▁triểng	-5829
▁vincom	-5830
▁xilanh	-5831
▁beckham	-5832
▁belgian	-5833
▁cameron	-5834
▁divider	-5835
▁formosa	-5836
▁karaoke	-5837
▁mathius	-5838
▁organic	-5839
▁reuters	-5840
▁samsung	-5841
▁simpson	-5842
▁ukraine	-5843
▁viettel	-5844
▁american	-5845
▁cracking	-5846
▁munchkin	-5847
▁napoleon	-5848
▁omniproc	-5849
▁savannah	-5850
▁scottish	-5851
▁usbtypec	-5852
▁victoria	-5853
▁bluetooth	-5854
▁halloween	-5855
▁hampshire	-5856
▁peterbald	-5857
▁serotonin	-5858
▁vinalines	-5859
▁creatinine	-5860
▁paranormal	-5861
▁hydroponics	-5862
▁marketplace	-5863
▁omniprocessor	-5864
aa	-5865
bn	-5866
gc	-5867
gd	-5868
he	-5869
ji	-5870
kk	-5871
ly	-5872
nc	-5873
nx	-5874
rd	-5875
rm	-5876
sh	-5877
sm	-5878
su	-5879
to	-5880
tp	-5881
tô	-5882
uk	-5883
vc	-5884
vp	-5885
vì	-5886
yl	-5887
za	-5888
ze	-5889
õm	-5890
ăc	-5891
ăt	-5892
ẻn	-5893
ệm	-5894
ợn	-5895
ụm	-5896
ủn	-5897
ừi	-5898
ựt	-5899
▁é	-5900
▁ề	-5901
▁ự	-5902
ade	-5903
age	-5904
ana	-5905
ant	-5906
any	-5907
ari	-5908
ary	-5909
auc	-5910
bai	-5911
bes	-5912
bnd	-5913
bot	-5914
bou	-5915
bul	-5916
cat	-5917
cci	-5918
cel	-5919
cis	-5920
dal	-5921
dic	-5922
eez	-5923
emy	-5924
ena	-5925
eth	-5926
fie	-5927
gem	-5928
ibo	-5929
ice	-5930
ide	-5931
ies	-5932
ilm	-5933
ime	-5934
ior	-5935
ity	-5936
kel	-5937
kyo	-5938
lad	-5939
med	-5940
mex	-5941
min	-5942
ney	-5943
nia	-5944
ode	-5945
oic	-5946
oid	-5947
oji	-5948
ost	-5949
pad	-5950
rad	-5951
ree	-5952
reo	-5953
rio	-5954
rop	-5955
ser	-5956
sha	-5957
tim	-5958
tol	-5959
txa	-5960
usb	-5961
ush	-5962
uth	-5963
yal	-5964
yle	-5965
yme	-5966
ễng	-5967
▁ab	-5968
▁br	-5969
▁bs	-5970
▁cạ	-5971
▁dõ	-5972
▁dẻ	-5973
▁dồ	-5974
▁gá	-5975
▁gê	-5976
▁gù	-5977
▁gư	-5978
▁gạ	-5979
▁gụ	-5980
▁hễ	-5981
▁hử	-5982
▁ji	-5983
▁lè	-5984
▁lú	-5985
▁ml	-5986
▁nc	-5987
▁nì	-5988
▁ob	-5989
▁oh	-5990
▁pr	-5991
▁pà	-5992
▁pò	-5993
▁pù	-5994
▁pư	-5995
▁rạ	-5996
▁rả	-5997
▁rệ	-5998
▁rụ	-5999
▁sm	-6000
▁ss	-6001
▁sạ	-6002
▁sả	-6003
▁sỏ	-6004
▁sỗ	-6005
▁tã	-6006
▁vố	-6007
▁vừ	-6008
▁xú	-6009
▁xĩ	-6010
▁xệ	-6011
▁xỏ	-6012
▁xở	-6013
▁ya	-6014
▁zu	-6015
▁èo	-6016
▁ìu	-6017
▁úm	-6018
▁đk	-6019
▁đy	-6020
▁đĩ	-6021
▁đợ	-6022
▁ơm	-6023
▁ưi	-6024
▁ẳn	-6025
▁ỉm	-6026
▁ời	-6027
▁ứt	-6028
alia	-6029
ater	-6030
atus	-6031
burg	-6032
cago	-6033
cean	-6034
chim	-6035
cium	-6036
cnic	-6037
ella	-6038
ello	-6039
emen	-6040
ence	-6041
enna	-6042
esso	-6043
gris	-6044
head	-6045
keup	-6046
kkad	-6047
like	-6048
lina	-6049
ling	-6050
llin	-6051
lton	-6052
mone	-6053
ning	-6054
nước	-6055
ream	-6056
rker	-6057
roli	-6058
rome	-6059
sian	-6060
ssin	-6061
stag	-6062
sync	-6063
tter	-6064
ttin	-6065
unce	-6066
uyến	-6067
vers	-6068
work	-6069
zada	-6070
zone	-6071
zyme	-6072
▁aaa	-6073
▁ach	-6074
▁alo	-6075
▁and	-6076
▁bar	-6077
▁boa	-6078
▁box	-6079
▁bêu	-6080
▁bùm	-6081
▁bải	-6082
▁bẵm	-6083
▁bặm	-6084
▁bệt	-6085
▁bịn	-6086
▁bịp	-6087
▁bộp	-6088
▁bớc	-6089
▁bờm	-6090
▁bỡn	-6091
▁bủa	-6092
▁bủn	-6093
▁bựa	-6094
▁chẻ	-6095
▁chồ	-6096
▁cop	-6097
▁cup	-6098
▁cvc	-6099
▁càu	-6100
▁cép	-6101
▁cét	-6102
▁cên	-6103
▁cùn	-6104
▁cảo	-6105
▁cằm	-6106
▁cứa	-6107
▁dem	-6108
▁dna	-6109
▁dáy	-6110
▁dìm	-6111
▁día	-6112
▁díp	-6113
▁dúc	-6114
▁dưn	-6115
▁dấp	-6116
▁dỏi	-6117
▁dớt	-6118
▁dởm	-6119
▁dụi	-6120
▁esp	-6121
▁eun	-6122
▁fox	-6123
▁gem	-6124
▁glo	-6125
▁gui	-6126
▁gym	-6127
▁gêu	-6128
▁gùa	-6129
▁gùi	-6130
▁gạn	-6131
▁gọt	-6132
▁gốt	-6133
▁hee	-6134
▁hey	-6135
▁hit	-6136
▁hoe	-6137
▁hor	-6138
▁hoạ	-6139
▁hpv	-6140
▁huơ	-6141
▁hám	-6142
▁hão	-6143
▁héo	-6144
▁hép	-6145
▁hòi	-6146
▁hóm	-6147
▁húp	-6148
▁hăn	-6149
▁hất	-6150
▁hầy	-6151
▁hới	-6152
▁hục	-6153
▁hừm	-6154
▁ker	-6155
▁khà	-6156
▁khò	-6157
▁kếp	-6158
▁los	-6159
▁léc	-6160
▁lói	-6161
▁lùm	-6162
▁lũi	-6163
▁lơn	-6164
▁lạo	-6165
▁lắt	-6166
▁lặt	-6167
▁lịm	-6168
▁lọi	-6169
▁lọn	-6170
▁lốm	-6171
▁lộp	-6172
▁lởm	-6173
▁lởn	-6174
▁lụm	-6175
▁lủi	-6176
▁lứt	-6177
▁lữa	-6178
▁mac	-6179
▁mal	-6180
▁mvp	-6181
▁myy	-6182
▁mói	-6183
▁mưi	-6184
▁mạp	-6185
▁mẹt	-6186
▁mếu	-6187
▁mền	-6188
▁mồn	-6189
▁mừi	-6190
▁nau	-6191
▁nen	-6192
▁ngố	-6193
▁nhó	-6194
▁nhù	-6195
▁nhơ	-6196
▁nhừ	-6197
▁nhử	-6198
▁nia	-6199
▁npk	-6200
▁nàm	-6201
▁nãi	-6202
▁nép	-6203
▁níc	-6204
▁núm	-6205
▁nưa	-6206
▁nạc	-6207
▁nặn	-6208
▁nẹp	-6209
▁nệm	-6210
▁nục	-6211
▁nựa	-6212
▁oao	-6213
▁pao	-6214
▁par	-6215
▁pâu	-6216
▁pạt	-6217
▁pằn	-6218
▁pếc	-6219
▁pừn	-6220
▁red	-6221
▁rgb	-6222
▁rom	-6223
▁rua	-6224
▁ràm	-6225
▁rán	-6226
▁rân	-6227
▁réo	-6228
▁rép	-6229
▁ríc	-6230
▁ríu	-6231
▁ròi	-6232
▁rúc	-6233
▁rưn	-6234
▁rẩy	-6235
▁rằn	-6236
▁rền	-6237
▁rợp	-6238
▁rục	-6239
▁rừn	-6240
▁sal	-6241
▁set	-6242
▁ste	-6243
▁swe	-6244
▁sái	-6245
▁sêm	-6246
▁sói	-6247
▁sảm	-6248
▁sảy	-6249
▁sẹc	-6250
▁sệt	-6251
▁sịa	-6252
▁sốp	-6253
▁sởn	-6254
▁sủi	-6255
▁sửu	-6256
▁tae	-6257
▁thé	-6258
▁thớ	-6259
▁thừ	-6260
▁trê	-6261
▁trư	-6262
▁trề	-6263
▁trỏ	-6264
▁tèn	-6265
▁típ	-6266
▁tứt	-6267
▁từm	-6268
▁tựt	-6269
▁uyn	-6270
▁uôn	-6271
▁uẩn	-6272
▁uồi	-6273
▁val	-6274
▁vao	-6275
▁voa	-6276
▁vov	-6277
▁vâu	-6278
▁véo	-6279
▁víc	-6280
▁vòn	-6281
▁vạc	-6282
▁vại	-6283
▁vạy	-6284
▁vỏn	-6285
▁vởi	-6286
▁wal	-6287
▁won	-6288
▁xeo	-6289
▁xiu	-6290
▁xoá	-6291
▁xum	-6292
▁xun	-6293
▁xvi	-6294
▁xén	-6295
▁xíp	-6296
▁xóc	-6297
▁xùm	-6298
▁xạc	-6299
▁xối	-6300
▁xộc	-6301
▁zin	-6302
▁zậy	-6303
▁óng	-6304
▁ôtô	-6305
▁đên	-6306
▁đìu	-6307
▁đóa	-6308
▁đúm	-6309
▁đăm	-6310
▁đểu	-6311
▁đỗi	-6312
▁đừm	-6313
▁ươi	-6314
▁ưỡn	-6315
▁ắng	-6316
acked	-6317
alorp	-6318
anmar	-6319
arded	-6320
arity	-6321
berty	-6322
cedon	-6323
chers	-6324
cisco	-6325
cribe	-6326
dicia	-6327
ecomb	-6328
eezer	-6329
elsum	-6330
ennan	-6331
epard	-6332
eshow	-6333
gdoll	-6334
leona	-6335
llage	-6336
lorua	-6337
ollow	-6338
phynx	-6339
rence	-6340
roten	-6341
timet	-6342
trick	-6343
▁anti	-6344
▁barb	-6345
▁bigc	-6346
▁biếc	-6347
▁brad	-6348
▁bâng	-6349
▁bươu	-6350
▁bạng	-6351
▁café	-6352
▁calo	-6353
▁case	-6354
▁chao	-6355
▁chem	-6356
▁cheo	-6357
▁chit	-6358
▁choa	-6359
▁choi	-6360
▁chun	-6361
▁chày	-6362
▁chúi	-6363
▁chầm	-6364
▁chặp	-6365
▁chẹt	-6366
▁chịt	-6367
▁chỏn	-6368
▁chới	-6369
▁cind	-6370
▁city	-6371
▁cmos	-6372
▁coon	-6373
▁cuội	-6374
▁cáng	-6375
▁cẳng	-6376
▁diểu	-6377
▁doăn	-6378
▁drop	-6379
▁duỗi	-6380
▁dăng	-6381
▁dườn	-6382
▁dếch	-6383
▁dộng	-6384
▁dửng	-6385
▁elle	-6386
▁fake	-6387
▁film	-6388
▁fran	-6389
▁gear	-6390
▁ghim	-6391
▁ghin	-6392
▁ghết	-6393
▁giâm	-6394
▁giãy	-6395
▁giêm	-6396
▁giảo	-6397
▁giầu	-6398
▁giậm	-6399
▁goen	-6400
▁gặng	-6401
▁gồng	-6402
▁hill	-6403
▁home	-6404
▁húng	-6405
▁hỉnh	-6406
▁ipad	-6407
▁jean	-6408
▁kang	-6409
▁keng	-6410
▁khem	-6411
▁kheo	-6412
▁khiu	-6413
▁khui	-6414
▁khum	-6415
▁khàn	-6416
▁khây	-6417
▁khèn	-6418
▁khóe	-6419
▁khóm	-6420
▁khăm	-6421
▁khứu	-6422
▁kirk	-6423
▁kwon	-6424
▁kông	-6425
▁kẻng	-6426
▁kếch	-6427
▁liễn	-6428
▁liệm	-6429
▁looc	-6430
▁lênh	-6431
▁lóng	-6432
▁lảng	-6433
▁lằng	-6434
▁lững	-6435
▁miss	-6436
▁miều	-6437
▁mánh	-6438
▁mưng	-6439
▁mưới	-6440
▁mịnh	-6441
▁nano	-6442
▁nghè	-6443
▁ngác	-6444
▁ngáo	-6445
▁ngùn	-6446
▁ngẩm	-6447
▁ngậy	-6448
▁ngốc	-6449
▁nháo	-6450
▁nhât	-6451
▁nhãi	-6452
▁nhói	-6453
▁nhón	-6454
▁nhõm	-6455
▁nhạo	-6456
▁nhảm	-6457
▁nhẩm	-6458
▁nhặn	-6459
▁nhụt	-6460
▁nhựt	-6461
▁nits	-6462
▁niêu	-6463
▁noel	-6464
▁note	-6465
▁nườm	-6466
▁nượp	-6467
▁nạng	-6468
▁nạnh	-6469
▁pheo	-6470
▁phon	-6471
▁phua	-6472
▁phèo	-6473
▁phơn	-6474
▁phắt	-6475
▁phọt	-6476
▁phốt	-6477
▁phủi	-6478
▁phừn	-6479
▁pinh	-6480
▁pitt	-6481
▁play	-6482
▁post	-6483
▁ptol	-6484
▁queo	-6485
▁quin	-6486
▁quài	-6487
▁quàn	-6488
▁quèn	-6489
▁quít	-6490
▁quẫn	-6491
▁quắn	-6492
▁quẹt	-6493
▁quớt	-6494
▁quỵt	-6495
▁rigs	-6496
▁roen	-6497
▁room	-6498
▁roát	-6499
▁roóc	-6500
▁ruây	-6501
▁rùng	-6502
▁rưởi	-6503
▁rượt	-6504
▁rịch	-6505
▁sett	-6506
▁sexy	-6507
▁shin	-6508
▁size	-6509
▁soda	-6510
▁soài	-6511
▁star	-6512
▁sính	-6513
▁sõng	-6514
▁sững	-6515
▁tech	-6516
▁thau	-6517
▁thin	-6518
▁thiu	-6519
▁thom	-6520
▁thui	-6521
▁thím	-6522
▁thúi	-6523
▁thơn	-6524
▁thẩn	-6525
▁thẫm	-6526
▁thọc	-6527
▁thỏm	-6528
▁thủa	-6529
▁thủi	-6530
▁thứt	-6531
▁tiều	-6532
▁tone	-6533
▁tran	-6534
▁tron	-6535
▁trám	-6536
▁trít	-6537
▁trơi	-6538
▁trạo	-6539
▁trầy	-6540
▁trẽn	-6541
▁tuýt	-6542
▁tuộc	-6543
▁tửng	-6544
▁ubnd	-6545
▁usda	-6546
▁uông	-6547
▁vero	-6548
▁viển	-6549
▁vãng	-6550
▁vằng	-6551
▁vịch	-6552
▁wang	-6553
▁wiki	-6554
▁word	-6555
▁xiên	-6556
▁xuẩn	-6557
▁xính	-6558
▁xúng	-6559
▁yeah	-6560
▁yoon	-6561
▁zach	-6562
▁đênh	-6563
▁đôla	-6564
▁đạch	-6565
▁đẵng	-6566
anvers	-6567
aucana	-6568
berian	-6569
bridge	-6570
donald	-6571
fornia	-6572
illion	-6573
perior	-6574
tanbul	-6575
uthern	-6576
veroll	-6577
▁admin	-6578
▁ahmed	-6579
▁anime	-6580
▁billy	-6581
▁boost	-6582
▁bương	-6583
▁chile	-6584
▁chiền	-6585
▁choán	-6586
▁choét	-6587
▁chạnh	-6588
▁combo	-6589
▁cover	-6590
▁digic	-6591
▁diêng	-6592
▁dubai	-6593
▁dutch	-6594
▁emoji	-6595
▁forum	-6596
▁gesso	-6597
▁ghềnh	-6598
▁goang	-6599
▁gsync	-6600
▁gucci	-6601
▁harry	-6602
▁hatch	-6603
▁hello	-6604
▁honey	-6605
▁hyori	-6606
▁joong	-6607
▁khoãn	-6608
▁khảng	-6609
▁khểnh	-6610
▁khựng	-6611
▁laser	-6612
▁loang	-6613
▁loáng	-6614
▁loăng	-6615
▁maine	-6616
▁mason	-6617
▁matxa	-6618
▁mayer	-6619
▁media	-6620
▁megan	-6621
▁model	-6622
▁natri	-6623
▁nghén	-6624
▁nghệp	-6625
▁ngoai	-6626
▁ngoáy	-6627
▁ngoải	-6628
▁ngỗng	-6629
▁nhoẻn	-6630
▁nhỉnh	-6631
▁obama	-6632
▁ocean	-6633
▁ounce	-6634
▁phang	-6635
▁phiếm	-6636
▁phooc	-6637
▁phung	-6638
▁phúng	-6639
▁phảng	-6640
▁phầng	-6641
▁pixie	-6642
▁power	-6643
▁quoặc	-6644
▁quầng	-6645
▁quẳng	-6646
▁quặng	-6647
▁radar	-6648
▁rhode	-6649
▁robot	-6650
▁round	-6651
▁royal	-6652
▁rumpy	-6653
▁seoul	-6654
▁smart	-6655
▁soạng	-6656
▁story	-6657
▁thoăn	-6658
▁thuyn	-6659
▁times	-6660
▁toanh	-6661
▁tokyo	-6662
▁toàng	-6663
▁toáng	-6664
▁toánh	-6665
▁truym	-6666
▁truộc	-6667
▁trườn	-6668
▁trỏng	-6669
▁weibo	-6670
▁xuyến	-6671
▁đuống	-6672
cedonia	-6673
ristian	-6674
rolimex	-6675
stagram	-6676
ttinson	-6677
ularity	-6678
▁baking	-6679
▁chiểng	-6680
▁choong	-6681
▁choạng	-6682
▁chrome	-6683
▁clicky	-6684
▁clorua	-6685
▁enzyme	-6686
▁esport	-6687
▁follow	-6688
▁forbes	-6689
▁frames	-6690
▁gaming	-6691
▁gioăng	-6692
▁hilton	-6693
▁hunter	-6694
▁island	-6695
▁khiêng	-6696
▁khuyển	-6697
▁khuâng	-6698
▁lazada	-6699
▁london	-6700
▁lurker	-6701
▁makeup	-6702
▁manila	-6703
▁meoreo	-6704
▁merkel	-6705
▁minoan	-6706
▁nghĩnh	-6707
▁ngoằng	-6708
▁nhoạng	-6709
▁oxygen	-6710
▁parker	-6711
▁phiêng	-6712
▁picnic	-6713
▁pixcel	-6714
▁resort	-6715
▁selfie	-6716
▁series	-6717
▁shisha	-6718
▁shopee	-6719
▁single	-6720
▁sphynx	-6721
▁spider	-6722
▁status	-6723
▁tablet	-6724
▁tennis	-6725
▁tigris	-6726
▁treant	-6727
▁tuabin	-6728
▁vienna	-6729
▁walker	-6730
▁welsum	-6731
phetamin	-6732
▁abysian	-6733
▁angeles	-6734
▁bearded	-6735
▁brennan	-6736
▁calcium	-6737
▁caroten	-6738
▁chicago	-6739
▁clinton	-6740
▁company	-6741
▁dislike	-6742
▁hamburg	-6743
▁harvard	-6744
▁hormone	-6745
▁jackson	-6746
▁liberty	-6747
▁myanmar	-6748
▁network	-6749
▁patrick	-6750
▁prophet	-6751
▁ptolemy	-6752
▁ragdoll	-6753
▁setting	-6754
▁shepard	-6755
▁stacked	-6756
▁sweater	-6757
▁tahigem	-6758
▁terence	-6759
▁village	-6760
▁wheezer	-6761
▁araucana	-6762
▁assyrian	-6763
▁carolina	-6764
▁centimet	-6765
▁eurozone	-6766
▁faveroll	-6767
▁istanbul	-6768
▁johnston	-6769
▁kirkland	-6770
▁liveshow	-6771
▁mcdonald	-6772
▁microusb	-6773
▁reviewer	-6774
▁rosecomb	-6775
▁siberian	-6776
▁southern	-6777
▁subcribe	-6778
▁superior	-6779
▁terrence	-6780
▁australia	-6781
▁cambridge	-6782
▁carbonate	-6783
▁christian	-6784
▁creatinin	-6785
▁francisco	-6786
▁instagram	-6787
▁macedonia	-6788
▁marketing	-6789
▁pattinson	-6790
▁roundhead	-6791
▁twitchers	-6792
▁verodicia	-6793
▁welsummer	-6794
▁australorp	-6795
▁california	-6796
▁hahahahaha	-6797
▁livestream	-6798
▁petrolimex	-6799
▁smartphone	-6800
▁vermillion	-6801
▁meoreoleona	-6802
▁singularity	-6803
▁hahahahahahaha	-6804
ags	-6805
aha	-6806
aro	-6807
ase	-6808
ass	-6809
ato	-6810
atu	-6811
bad	-6812
bal	-6813
bat	-6814
bit	-6815
bol	-6816
cap	-6817
ced	-6818
cei	-6819
cid	-6820
col	-6821
cos	-6822
cst	-6823
cup	-6824
của	-6825
dev	-6826
dge	-6827
dit	-6828
elt	-6829
etm	-6830
eva	-6831
fdy	-6832
gei	-6833
gom	-6834
gra	-6835
hip	-6836
idt	-6837
ith	-6838
ive	-6839
kok	-6840
lar	-6841
led	-6842
lex	-6843
lie	-6844
lik	-6845
lli	-6846
mlo	-6847
mob	-6848
mul	-6849
nat	-6850
nre	-6851
obe	-6852
ock	-6853
oir	-6854
oms	-6855
ooc	-6856
oom	-6857
opo	-6858
ord	-6859
osa	-6860
ots	-6861
ped	-6862
pho	-6863
ppy	-6864
rag	-6865
raq	-6866
rav	-6867
rce	-6868
rew	-6869
rit	-6870
rom	-6871
rov	-6872
rry	-6873
sca	-6874
set	-6875
sol	-6876
sph	-6877
sun	-6878
tav	-6879
tit	-6880
tos	-6881
tsu	-6882
ttp	-6883
tín	-6884
uko	-6885
ulf	-6886
vat	-6887
wat	-6888
wow	-6889
xel	-6890
▁eg	-6891
▁er	-6892
▁fb	-6893
▁fg	-6894
▁ft	-6895
▁it	-6896
▁jj	-6897
▁jp	-6898
▁op	-6899
ene	-6900
ten	-6901
tew	-6902
ven	-6903
▁at	-6904
▁az	-6905
▁uể	-6906
▁ww	-6907
▁zà	-6908
▁òi	-6909
▁ùi	-6910
▁ầy	-6911
▁ẳm	-6912
▁ẻm	-6913
▁ịc	-6914
▁ọt	-6915
▁ớn	-6916
▁ứa	-6917
agen	-6918
ague	-6919
aibe	-6920
aill	-6921
aina	-6922
anda	-6923
andt	-6924
ardo	-6925
aroo	-6926
arte	-6927
asma	-6928
asso	-6929
atch	-6930
beth	-6931
bits	-6932
bolt	-6933
bour	-6934
burn	-6935
cath	-6936
chur	-6937
cola	-6938
coon	-6939
dila	-6940
doms	-6941
drat	-6942
dren	-6943
drey	-6944
edes	-6945
elan	-6946
elle	-6947
enst	-6948
etst	-6949
fone	-6950
ford	-6951
gnat	-6952
grat	-6953
hima	-6954
hiro	-6955
iano	-6956
iant	-6957
ides	-6958
igan	-6959
imal	-6960
inol	-6961
itsu	-6962
ixel	-6963
ksin	-6964
lama	-6965
layp	-6966
lech	-6967
lein	-6968
lett	-6969
lfur	-6970
lish	-6971
lium	-6972
liza	-6973
ller	-6974
llus	-6975
mani	-6976
meni	-6977
midt	-6978
nger	-6979
oder	-6980
oglo	-6981
oman	-6982
omin	-6983
onap	-6984
opur	-6985
orca	-6986
orth	-6987
phin	-6988
phog	-6989
phra	-6990
rbus	-6991
rner	-6992
rnes	-6993
ross	-6994
russ	-6995
shup	-6996
sive	-6997
smol	-6998
ssey	-6999
ors	-7000
rái	-7001
▁jh	-7002
▁yi	-7003
▁ẹp	-7004
erre	-7005
ster	-7006
sulf	-7007
tcom	-7008
than	-7009
thia	-7010
thyl	-7011
tian	-7012
tine	-7013
tney	-7014
tosh	-7015
trái	-7016
ucid	-7017
unds	-7018
ushu	-7019
vana	-7020
very	-7021
vine	-7022
vory	-7023
vrov	-7024
vych	-7025
ward	-7026
watt	-7027
xide	-7028
ycol	-7029
yrus	-7030
ômen	-7031
▁abu	-7032
▁acs	-7033
▁all	-7034
▁ana	-7035
▁asy	-7036
▁atg	-7037
▁ath	-7038
▁aux	-7039
▁bbc	-7040
▁bet	-7041
▁boo	-7042
▁bri	-7043
▁bui	-7044
▁bus	-7045
▁bèm	-7046
▁bíc	-7047
▁bím	-7048
▁bưn	-7049
▁bấu	-7050
▁bẫm	-7051
▁bẹc	-7052
▁bẽn	-7053
▁bếc	-7054
▁bỏi	-7055
▁bợt	-7056
▁bủi	-7057
▁bừn	-7058
▁cac	-7059
▁car	-7060
▁cot	-7061
▁cub	-7062
▁cui	-7063
▁cut	-7064
▁cuv	-7065
▁cạp	-7066
▁cạu	-7067
▁cặm	-7068
▁cọt	-7069
▁cổn	-7070
▁cỡm	-7071
▁cợn	-7072
▁cụa	-7073
▁cụi	-7074
▁cứi	-7075
▁cựt	-7076
▁dar	-7077
▁dev	-7078
▁dio	-7079
▁dra	-7080
▁drm	-7081
▁dun	-7082
▁dèn	-7083
▁déc	-7084
▁dúm	-7085
▁dẩm	-7086
▁dẩy	-7087
▁dịn	-7088
▁dịt	-7089
▁dọi	-7090
▁dộn	-7091
▁dụt	-7092
▁dửa	-7093
▁egy	-7094
▁eug	-7095
▁fam	-7096
▁far	-7097
▁fir	-7098
▁fum	-7099
ski	-7100
▁vọ	-7101
▁êi	-7102
ragu	-7103
▁bập	-7104
▁doc	-7105
▁dăn	-7106
▁dạm	-7107
▁dốn	-7108
▁gar	-7109
▁geo	-7110
▁ghè	-7111
▁ghệ	-7112
▁ghồ	-7113
▁gog	-7114
▁gon	-7115
▁gor	-7116
▁gra	-7117
▁gue	-7118
▁guơ	-7119
▁gvi	-7120
▁gét	-7121
▁gôm	-7122
▁gẫu	-7123
▁gắc	-7124
▁gốp	-7125
▁gộp	-7126
▁gờm	-7127
▁gợn	-7128
▁haw	-7129
▁hdm	-7130
▁hea	-7131
▁hep	-7132
▁him	-7133
▁hiv	-7134
▁hur	-7135
▁huỷ	-7136
▁hyk	-7137
▁háy	-7138
▁hèm	-7139
▁hén	-7140
▁hêy	-7141
▁húi	-7142
▁hưm	-7143
▁hều	-7144
▁hổm	-7145
▁hổn	-7146
▁hứm	-7147
▁ips	-7148
▁iso	-7149
▁iup	-7150
▁jac	-7151
▁jej	-7152
▁jim	-7153
▁jpg	-7154
▁koi	-7155
▁kra	-7156
▁kua	-7157
▁kêm	-7158
▁kẻo	-7159
▁kềm	-7160
▁kệt	-7161
▁lad	-7162
▁lat	-7163
▁let	-7164
▁lex	-7165
▁lie	-7166
▁lom	-7167
▁low	-7168
▁lym	-7169
▁lyn	-7170
▁láy	-7171
▁lèm	-7172
▁lèn	-7173
▁lém	-7174
▁lìn	-7175
▁lóa	-7176
▁lóe	-7177
▁lúi	-7178
▁lạị	-7179
▁lẽn	-7180
▁lếu	-7181
▁lọa	-7182
▁lợm	-7183
▁lừm	-7184
▁mah	-7185
▁mar	-7186
▁mat	-7187
▁mel	-7188
▁meq	-7189
▁mes	-7190
▁mic	-7191
▁mil	-7192
▁moi	-7193
▁mri	-7194
▁msi	-7195
▁mtp	-7196
▁mui	-7197
▁mum	-7198
▁máp	-7199
dc	-7200
lđ	-7201
rf	-7202
sf	-7203
ọe	-7204
ỡm	-7205
ỷu	-7206
▁ĩ	-7207
box	-7208
ell	-7209
eng	-7210
klđ	-7211
kéo	-7212
lăm	-7213
oil	-7214
sfs	-7215
ssw	-7216
xes	-7217
énh	-7218
▁ce	-7219
▁ct	-7220
▁gb	-7221
▁mố	-7222
▁tộ	-7223
▁vù	-7224
▁đc	-7225
▁đh	-7226
▁đt	-7227
▁đí	-7228
▁ẹc	-7229
▁ỡm	-7230
bbin	-7231
feng	-7232
omes	-7233
opot	-7234
▁bợm	-7235
▁chệ	-7236
▁díc	-7237
▁gứt	-7238
▁hủa	-7239
▁hửu	-7240
▁kíc	-7241
▁lac	-7242
▁lúp	-7243
▁lũv	-7244
▁msb	-7245
▁mèm	-7246
▁mém	-7247
▁môt	-7248
▁măc	-7249
▁măt	-7250
▁mảy	-7251
▁mấc	-7252
▁mẩm	-7253
▁mẫm	-7254
▁mằn	-7255
▁mẹc	-7256
▁mớn	-7257
▁mờn	-7258
▁neu	-7259
▁npr	-7260
▁nãm	-7261
▁nơm	-7262
▁nấn	-7263
▁nầm	-7264
▁nậu	-7265
▁nểu	-7266
▁nện	-7267
▁nịt	-7268
▁nớp	-7269
▁nợn	-7270
▁ody	-7271
▁ott	-7272
▁oác	-7273
▁oây	-7274
▁pah	-7275
▁pcr	-7276
▁pec	-7277
▁pic	-7278
▁pla	-7279
▁plu	-7280
▁poi	-7281
▁péo	-7282
▁pêu	-7283
▁pía	-7284
▁pòm	-7285
▁póc	-7286
▁póp	-7287
▁pốp	-7288
▁rop	-7289
▁rêm	-7290
▁rêt	-7291
▁rắt	-7292
▁rặt	-7293
▁rếc	-7294
▁rệp	-7295
▁rệu	-7296
▁rỏi	-7297
▁rớm	-7298
▁rởm	-7299
br	-7300
dr	-7301
dạ	-7302
fr	-7303
mp	-7304
tc	-7305
vn	-7306
ya	-7307
zy	-7308
ýn	-7309
cen	-7310
gly	-7311
nhy	-7312
rix	-7313
▁dổ	-7314
▁ep	-7315
▁gỏ	-7316
▁sủ	-7317
▁xẽ	-7318
cent	-7319
cooc	-7320
neth	-7321
rate	-7322
▁bem	-7323
▁bôm	-7324
▁ddr	-7325
▁ewe	-7326
▁gfr	-7327
▁ghô	-7328
▁goi	-7329
▁gỏm	-7330
▁iêm	-7331
▁kiệ	-7332
▁lìm	-7333
▁lưa	-7334
▁pia	-7335
▁pvn	-7336
▁qùa	-7337
▁rợi	-7338
▁rụp	-7339
▁rức	-7340
▁siu	-7341
▁sml	-7342
▁soo	-7343
▁spo	-7344
▁ssd	-7345
▁sua	-7346
▁sám	-7347
▁sãi	-7348
▁sùi	-7349
▁sún	-7350
▁sậm	-7351
▁sậy	-7352
▁sếc	-7353
▁sịp	-7354
▁sịt	-7355
▁sồi	-7356
▁tel	-7357
▁trỉ	-7358
▁tuê	-7359
▁tìn	-7360
▁tíc	-7361
▁tíu	-7362
▁tôt	-7363
▁tăn	-7364
▁tầy	-7365
▁tệp	-7366
▁tứn	-7367
▁uss	-7368
▁uốt	-7369
▁uột	-7370
▁vec	-7371
▁veo	-7372
▁ves	-7373
▁via	-7374
▁vim	-7375
▁vip	-7376
▁viv	-7377
▁vle	-7378
▁vtc	-7379
▁váo	-7380
▁váp	-7381
▁vưu	-7382
▁vạm	-7383
▁vạt	-7384
▁vồm	-7385
▁vờn	-7386
▁vởn	-7387
▁war	-7388
▁whi	-7389
▁wít	-7390
▁xim	-7391
▁xuê	-7392
▁xuề	-7393
▁xân	-7394
▁xém	-7395
▁xéo	-7396
▁xêm	-7397
▁xìm	-7398
▁xìu	-7399
có	-7400
kẻ	-7401
về	-7402
ịu	-7403
ứn	-7404
ựu	-7405
▁ă	-7406
div	-7407
imi	-7408
lee	-7409
nge	-7410
ois	-7411
sos	-7412
ted	-7413
vre	-7414
▁gở	-7415
▁ja	-7416
▁nũ	-7417
▁rọ	-7418
▁sg	-7419
▁đụ	-7420
imir	-7421
nder	-7422
nedy	-7423
nred	-7424
olic	-7425
▁ann	-7426
▁cảu	-7427
▁dàm	-7428
▁gáo	-7429
▁hịu	-7430
▁hụp	-7431
▁joe	-7432
▁khú	-7433
▁lảo	-7434
▁mứn	-7435
▁nhể	-7436
▁oam	-7437
▁pôi	-7438
▁rựu	-7439
▁sòm	-7440
▁sựt	-7441
▁vọc	-7442
▁xòa	-7443
▁xóp	-7444
▁xún	-7445
▁xúy	-7446
▁xơi	-7447
▁xản	-7448
▁xẩy	-7449
▁xọc	-7450
▁xốn	-7451
▁xộp	-7452
▁xửa	-7453
▁yah	-7454
▁yen	-7455
▁zam	-7456
▁ziu	-7457
▁éng	-7458
▁đàu	-7459
▁đât	-7460
▁đép	-7461
▁đìa	-7462
▁đúa	-7463
▁đúp	-7464
▁đấc	-7465
▁đẫy	-7466
▁đật	-7467
▁đẵn	-7468
▁đẹo	-7469
▁đẹt	-7470
▁đẽo	-7471
▁đếc	-7472
▁đọt	-7473
▁đồm	-7474
▁đợp	-7475
▁đụt	-7476
▁ầna	-7477
▁ệch	-7478
aemen	-7479
aitav	-7480
antan	-7481
anuko	-7482
atubo	-7483
bbins	-7484
ccoon	-7485
cedes	-7486
chính	-7487
cstas	-7488
dater	-7489
dcore	-7490
dives	-7491
edong	-7492
eline	-7493
ennis	-7494
ernan	-7495
gonch	-7496
goyle	-7497
hanna	-7498
idase	-7499
my	-7500
ởn	-7501
ỷn	-7502
aan	-7503
cửa	-7504
pez	-7505
wag	-7506
ươt	-7507
▁cs	-7508
▁mh	-7509
▁ný	-7510
▁sí	-7511
▁tb	-7512
▁tễ	-7513
▁tữ	-7514
▁vw	-7515
▁đễ	-7516
▁đừ	-7517
▁ừa	-7518
dong	-7519
tina	-7520
tsui	-7521
▁bữu	-7522
▁dót	-7523
▁dổi	-7524
▁fuk	-7525
▁gha	-7526
▁ghì	-7527
▁gảo	-7528
▁hực	-7529
▁jai	-7530
▁kím	-7531
▁nim	-7532
▁pên	-7533
▁qốc	-7534
▁sip	-7535
▁sõi	-7536
▁trộ	-7537
▁tởn	-7538
▁uni	-7539
▁www	-7540
▁xau	-7541
▁xỉa	-7542
▁xồm	-7543
▁xức	-7544
bonap	-7545
ilion	-7546
iness	-7547
kedin	-7548
larke	-7549
leton	-7550
liban	-7551
licon	-7552
logan	-7553
malay	-7554
malia	-7555
merul	-7556
ocmon	-7557
odera	-7558
oneph	-7559
pedia	-7560
ranit	-7561
raphy	-7562
ravel	-7563
rewer	-7564
ritis	-7565
rvine	-7566
sider	-7567
skill	-7568
tario	-7569
thers	-7570
titas	-7571
tyric	-7572
urage	-7573
uretm	-7574
ushth	-7575
uston	-7576
vania	-7577
vedev	-7578
wnred	-7579
▁alba	-7580
▁alex	-7581
▁amin	-7582
▁assa	-7583
▁atgt	-7584
▁audi	-7585
▁avat	-7586
▁ayam	-7587
▁bach	-7588
▁ball	-7589
▁bass	-7590
▁beer	-7591
▁beta	-7592
▁bida	-7593
▁bing	-7594
▁blai	-7595
▁boss	-7596
▁boét	-7597
▁boóc	-7598
▁brid	-7599
ứi	-7600
daa	-7601
era	-7602
ily	-7603
rut	-7604
sil	-7605
syl	-7606
wai	-7607
▁hn	-7608
▁ql	-7609
▁tó	-7610
▁đứ	-7611
tors	-7612
▁adn	-7613
▁dức	-7614
▁jay	-7615
▁kit	-7616
▁lải	-7617
▁lứi	-7618
▁mậy	-7619
▁nag	-7620
▁nhò	-7621
▁not	-7622
▁nán	-7623
▁nưu	-7624
▁nắc	-7625
▁qép	-7626
▁raw	-7627
▁răm	-7628
▁sir	-7629
▁sặt	-7630
▁try	-7631
▁tẩn	-7632
▁tờn	-7633
▁vập	-7634
▁xợt	-7635
▁zia	-7636
▁đấp	-7637
▁ạch	-7638
daaam	-7639
phoen	-7640
teway	-7641
▁buột	-7642
▁bẵng	-7643
▁bệch	-7644
▁bịnh	-7645
▁bỏch	-7646
▁calv	-7647
▁card	-7648
▁care	-7649
▁carl	-7650
▁cdmp	-7651
▁celt	-7652
▁chet	-7653
▁chic	-7654
▁chiu	-7655
▁chum	-7656
▁chuê	-7657
▁chái	-7658
▁chãi	-7659
▁chúp	-7660
▁chũi	-7661
▁chưc	-7662
▁chằn	-7663
▁chễm	-7664
▁chọe	-7665
▁chọt	-7666
▁chốp	-7667
▁chộp	-7668
▁chột	-7669
▁chớn	-7670
▁chờn	-7671
▁chợp	-7672
▁chừn	-7673
▁coai	-7674
▁coca	-7675
▁cola	-7676
▁cole	-7677
▁coli	-7678
▁coll	-7679
▁cook	-7680
▁coát	-7681
▁coóc	-7682
▁coăn	-7683
▁cuat	-7684
▁cườm	-7685
▁cọái	-7686
▁cỏng	-7687
▁dave	-7688
▁deli	-7689
▁dian	-7690
▁dick	-7691
▁diez	-7692
▁dire	-7693
▁disp	-7694
▁diềm	-7695
▁diểm	-7696
▁doan	-7697
▁dota	-7698
▁dõng	-7699
hd	-7700
ala	-7701
amo	-7702
dor	-7703
lại	-7704
psi	-7705
tup	-7706
ậng	-7707
▁bc	-7708
▁bụ	-7709
▁cb	-7710
▁dũ	-7711
▁dứ	-7712
▁hk	-7713
▁hõ	-7714
▁hĩ	-7715
▁hẹ	-7716
▁lm	-7717
▁mf	-7718
▁mx	-7719
▁mả	-7720
▁rù	-7721
▁sé	-7722
▁uỵ	-7723
▁vk	-7724
▁vè	-7725
▁vỉ	-7726
▁èm	-7727
▁đù	-7728
▁ẫm	-7729
bany	-7730
gbar	-7731
kong	-7732
lian	-7733
▁chá	-7734
▁cum	-7735
▁cùa	-7736
▁cật	-7737
▁dơn	-7738
▁ecu	-7739
▁flè	-7740
▁hùi	-7741
▁lấu	-7742
▁mix	-7743
▁nui	-7744
▁pồn	-7745
▁ráy	-7746
▁thẹ	-7747
▁tèo	-7748
▁vịn	-7749
▁ỏng	-7750
doren	-7751
inson	-7752
mlock	-7753
rface	-7754
▁biêu	-7755
▁dước	-7756
▁edit	-7757
▁eric	-7758
▁erie	-7759
▁fans	-7760
▁feel	-7761
▁fena	-7762
▁file	-7763
▁firm	-7764
▁five	-7765
▁free	-7766
▁from	-7767
▁gaia	-7768
▁gara	-7769
▁gard	-7770
▁geun	-7771
▁ghua	-7772
▁ghém	-7773
▁giâu	-7774
▁giên	-7775
▁giòi	-7776
▁giót	-7777
▁giũa	-7778
▁giấm	-7779
▁giậy	-7780
▁giắc	-7781
▁giễu	-7782
▁giớt	-7783
▁giờn	-7784
▁giụa	-7785
▁giừn	-7786
▁goao	-7787
▁goay	-7788
▁gold	-7789
▁goài	-7790
▁goạt	-7791
▁goắc	-7792
▁grab	-7793
▁grid	-7794
▁guen	-7795
▁guep	-7796
▁guin	-7797
▁gung	-7798
▁guết	-7799
lá	-7800
cần	-7801
dan	-7802
lâu	-7803
sai	-7804
ướu	-7805
▁dy	-7806
▁dá	-7807
▁dỉ	-7808
▁dộ	-7809
▁dử	-7810
▁gú	-7811
▁nớ	-7812
▁pá	-7813
▁pẹ	-7814
▁sr	-7815
▁sã	-7816
▁só	-7817
▁sớ	-7818
▁vỹ	-7819
▁ài	-7820
cker	-7821
esol	-7822
pura	-7823
▁abe	-7824
▁bép	-7825
▁chề	-7826
▁cộp	-7827
▁dùa	-7828
▁giỡ	-7829
▁gờn	-7830
▁hác	-7831
▁lòe	-7832
▁mom	-7833
▁ngỗ	-7834
▁ngớ	-7835
▁nhề	-7836
▁nhứ	-7837
▁phé	-7838
▁png	-7839
▁quô	-7840
▁quở	-7841
▁rày	-7842
▁sàu	-7843
▁sếu	-7844
▁trã	-7845
▁tếc	-7846
▁tợt	-7847
▁wai	-7848
▁xam	-7849
▁xáy	-7850
▁đag	-7851
ander	-7852
ethyl	-7853
geria	-7854
ource	-7855
raibe	-7856
▁giga	-7857
▁gogh	-7858
▁guốp	-7859
▁hale	-7860
▁hanz	-7861
▁have	-7862
▁hawk	-7863
▁hdmi	-7864
▁hiêu	-7865
▁hiệm	-7866
▁hnay	-7867
▁hoon	-7868
▁hoóc	-7869
▁hoăc	-7870
▁hoắt	-7871
▁http	-7872
▁huyn	-7873
▁huồi	-7874
▁hênh	-7875
▁hóng	-7876
▁hịch	-7877
▁inte	-7878
▁iraq	-7879
▁jade	-7880
▁jang	-7881
▁java	-7882
▁jong	-7883
▁joon	-7884
▁kaki	-7885
▁kerr	-7886
▁khiế	-7887
▁khoá	-7888
▁khua	-7889
▁khèo	-7890
▁khéc	-7891
▁khêu	-7892
▁khún	-7893
▁khưu	-7894
▁khạc	-7895
▁khạo	-7896
▁khấc	-7897
▁khấm	-7898
▁khập	-7899
boy	-7900
che	-7901
ina	-7902
▁qq	-7903
▁rĩ	-7904
▁rẹ	-7905
▁rỏ	-7906
▁sề	-7907
▁vx	-7908
▁xd	-7909
▁xư	-7910
▁xề	-7911
▁xụ	-7912
▁ướ	-7913
dale	-7914
etam	-7915
song	-7916
ulia	-7917
ươch	-7918
▁atp	-7919
▁băt	-7920
▁chể	-7921
▁cáí	-7922
▁dác	-7923
▁get	-7924
▁gie	-7925
▁giừ	-7926
▁gol	-7927
▁gết	-7928
▁hou	-7929
▁hày	-7930
▁măm	-7931
▁nẩy	-7932
▁nốc	-7933
▁nỡm	-7934
▁phệ	-7935
▁pép	-7936
▁què	-7937
▁quẻ	-7938
▁rei	-7939
▁sch	-7940
▁sôn	-7941
▁sất	-7942
▁sọn	-7943
▁sột	-7944
▁vói	-7945
▁xán	-7946
▁xụp	-7947
▁đượ	-7948
▁ướm	-7949
akkad	-7950
tania	-7951
▁bười	-7952
▁chil	-7953
▁dork	-7954
▁dình	-7955
▁dóng	-7956
▁giắt	-7957
▁guân	-7958
▁khẳm	-7959
▁khốm	-7960
▁khốp	-7961
▁khụy	-7962
▁kiki	-7963
▁kiệu	-7964
▁kors	-7965
▁kris	-7966
▁kềnh	-7967
▁kệch	-7968
▁land	-7969
▁leng	-7970
▁leon	-7971
▁lica	-7972
▁liek	-7973
▁ling	-7974
▁liếm	-7975
▁liệp	-7976
▁load	-7977
▁lowa	-7978
▁loải	-7979
▁loẹt	-7980
▁loọc	-7981
▁luôm	-7982
▁luộm	-7983
▁léng	-7984
▁lươn	-7985
▁lảnh	-7986
▁lẵng	-7987
▁lủng	-7988
▁lựng	-7989
▁mart	-7990
▁mayf	-7991
▁mbps	-7992
▁mega	-7993
▁misa	-7994
▁miễu	-7995
▁mosm	-7996
▁moss	-7997
▁moto	-7998
▁muồi	-7999
act	-8000
ani	-8001
day	-8002
lỗi	-8003
sức	-8004
▁gừ	-8005
▁kc	-8006
▁kô	-8007
▁áy	-8008
agra	-8009
aman	-8010
date	-8011
▁cem	-8012
▁ghẻ	-8013
▁gòi	-8014
▁hoc	-8015
▁hop	-8016
▁iều	-8017
▁kây	-8018
▁kến	-8019
▁lụp	-8020
▁nóp	-8021
▁pay	-8022
▁rôi	-8023
▁rận	-8024
▁sìn	-8025
▁sẽo	-8026
▁sết	-8027
▁sực	-8028
▁tẹo	-8029
▁tời	-8030
▁vản	-8031
▁vẻn	-8032
▁vức	-8033
▁xáp	-8034
▁xấy	-8035
▁xần	-8036
▁xắc	-8037
▁xốc	-8038
china	-8039
những	-8040
tisol	-8041
▁cara	-8042
▁chực	-8043
▁ghít	-8044
▁giạt	-8045
▁hống	-8046
▁jeju	-8047
▁miếc	-8048
▁mung	-8049
▁muồn	-8050
▁mành	-8051
▁mòng	-8052
▁mằng	-8053
▁mặng	-8054
▁mống	-8055
▁mộti	-8056
▁mủng	-8057
▁nato	-8058
▁nauy	-8059
▁navy	-8060
▁neck	-8061
▁ngan	-8062
▁nghé	-8063
▁ngoi	-8064
▁ngáp	-8065
▁ngâu	-8066
▁ngét	-8067
▁ngòm	-8068
▁ngõa	-8069
▁ngĩa	-8070
▁ngấp	-8071
▁ngấu	-8072
▁ngấy	-8073
▁ngắc	-8074
▁ngẹn	-8075
▁ngốn	-8076
▁ngội	-8077
▁ngụa	-8078
▁ngủn	-8079
▁ngừi	-8080
▁ngữa	-8081
▁nhao	-8082
▁nhem	-8083
▁nhlá	-8084
▁nhon	-8085
▁nhuế	-8086
▁nhám	-8087
▁nháp	-8088
▁nhín	-8089
▁nhíp	-8090
▁nhít	-8091
▁nhíu	-8092
▁nhòm	-8093
▁nhôn	-8094
▁nhúc	-8095
▁nhĩa	-8096
▁nhũn	-8097
▁nhẩu	-8098
▁nhẩy	-8099
▁bẹn	-8100
▁moa	-8101
▁nơn	-8102
▁pốc	-8103
▁sẩm	-8104
▁vối	-8105
eucid	-8106
▁chau	-8107
▁cuba	-8108
▁giốc	-8109
▁khin	-8110
▁ngut	-8111
▁nhẵn	-8112
▁nhẻm	-8113
▁nhịt	-8114
▁nhối	-8115
▁nhốn	-8116
▁nhứt	-8117
▁nile	-8118
▁ning	-8119
▁nino	-8120
▁nito	-8121
▁niít	-8122
▁niền	-8123
▁nuột	-8124
▁núng	-8125
▁nươi	-8126
▁nướu	-8127
▁nấng	-8128
▁nững	-8129
▁oang	-8130
▁oppo	-8131
▁oval	-8132
▁oxit	-8133
▁ozon	-8134
▁page	-8135
▁pano	-8136
▁papa	-8137
▁pate	-8138
▁phau	-8139
▁phoi	-8140
▁phom	-8141
▁phum	-8142
▁phuy	-8143
▁phài	-8144
▁phào	-8145
▁phât	-8146
▁phâu	-8147
▁phên	-8148
▁phíc	-8149
▁phòi	-8150
▁phăn	-8151
▁phảy	-8152
▁phảị	-8153
▁phấp	-8154
▁phầm	-8155
▁phắc	-8156
▁phịt	-8157
▁phọc	-8158
▁phốc	-8159
▁phợt	-8160
▁phứt	-8161
▁piêu	-8162
▁prix	-8163
▁pạch	-8164
▁quei	-8165
▁quoa	-8166
▁quym	-8167
▁quyt	-8168
▁quại	-8169
▁quạn	-8170
▁quẫy	-8171
▁quậy	-8172
▁quắc	-8173
▁quằn	-8174
▁quệt	-8175
▁raid	-8176
▁reed	-8177
▁rico	-8178
▁ring	-8179
▁riêu	-8180
▁riệt	-8181
▁roáp	-8182
▁roắc	-8183
▁ruby	-8184
▁ruym	-8185
▁ruýt	-8186
▁ruốc	-8187
▁ruộm	-8188
▁ryan	-8189
▁rặng	-8190
▁rợni	-8191
▁scan	-8192
▁scar	-8193
▁shâu	-8194
▁sick	-8195
▁soai	-8196
▁sooc	-8197
▁soán	-8198
▁soạt	-8199
▁srgb	-8200
▁stan	-8201
▁stay	-8202
▁suke	-8203
▁suli	-8204
▁suzy	-8205
▁suây	-8206
▁suýp	-8207
▁swag	-8208
▁sâng	-8209
▁sênh	-8210
▁sích	-8211
▁sũng	-8212
▁sướn	-8213
▁sướt	-8214
▁sắng	-8215
▁sằng	-8216
▁sổng	-8217
▁tata	-8218
▁teng	-8219
▁test	-8220
▁thep	-8221
▁thia	-8222
▁thor	-8223
▁thào	-8224
▁thày	-8225
▁thén	-8226
▁thên	-8227
▁thôm	-8228
▁thùa	-8229
▁thúp	-8230
▁thơi	-8231
▁thưở	-8232
▁thẹo	-8233
▁thẻo	-8234
▁thều	-8235
▁thệt	-8236
▁thồi	-8237
▁thổn	-8238
▁tich	-8239
▁tiki	-8240
▁time	-8241
▁ting	-8242
▁tiny	-8243
▁toác	-8244
▁toạc	-8245
▁toẹt	-8246
▁tray	-8247
▁trin	-8248
▁troa	-8249
▁troe	-8250
▁trài	-8251
▁tráp	-8252
▁tríp	-8253
▁tròi	-8254
▁trùn	-8255
▁trúp	-8256
▁trũi	-8257
▁trưm	-8258
▁trảo	-8259
▁trẩm	-8260
▁trẩy	-8261
▁trẻo	-8262
▁trết	-8263
▁trệu	-8264
▁trịa	-8265
▁trịu	-8266
▁trọc	-8267
▁trọi	-8268
▁trức	-8269
▁tuyn	-8270
▁tuốc	-8271
▁tuốt	-8272
▁tành	-8273
▁tênh	-8274
▁tươm	-8275
▁tược	-8276
▁tạch	-8277
▁tệch	-8278
▁uber	-8279
▁uran	-8280
▁uwow	-8281
▁uỳnh	-8282
▁uỵch	-8283
▁vanh	-8284
▁veam	-8285
▁vers	-8286
▁vest	-8287
▁vina	-8288
▁vivo	-8289
▁vlad	-8290
▁vánh	-8291
▁vãnh	-8292
▁vược	-8293
▁vượn	-8294
▁vạng	-8295
▁vảng	-8296
▁vểnh	-8297
▁xang	-8298
▁xklđ	-8299
▁xoan	-8300
▁xuây	-8301
▁xuýt	-8302
▁xuốt	-8303
▁xvii	-8304
▁xánh	-8305
▁xình	-8306
▁xằng	-8307
▁xếch	-8308
▁xềnh	-8309
▁xịch	-8310
▁xổng	-8311
▁ytín	-8312
▁zack	-8313
▁zing	-8314
▁zoom	-8315
▁đeng	-8316
▁đing	-8317
▁đoài	-8318
▁đuốc	-8319
▁đước	-8320
▁đười	-8321
▁đễnh	-8322
▁đỏng	-8323
▁đủng	-8324
acomin	-8325
agship	-8326
ailles	-8327
angled	-8328
ashmob	-8329
assium	-8330
atcher	-8331
bourne	-8332
boutin	-8333
brandt	-8334
caprio	-8335
ceiver	-8336
chures	-8337
clover	-8338
cstasy	-8339
entine	-8340
erella	-8341
etstar	-8342
glycos	-8343
ildren	-8344
ithson	-8345
ladesh	-8346
llenge	-8347
llisca	-8348
menich	-8349
raguay	-8350
rbonhy	-8351
risten	-8352
sphate	-8353
ssanid	-8354
ssword	-8355
sunori	-8356
tonium	-8357
toshop	-8358
ushima	-8359
ushtha	-8360
▁adobe	-8361
▁akkad	-8362
▁alsil	-8363
▁amber	-8364
▁amino	-8365
▁argen	-8366
▁atham	-8367
▁barbu	-8368
▁barca	-8369
▁blade	-8370
▁blair	-8371
▁boots	-8372
▁brook	-8373
▁bruss	-8374
▁bường	-8375
▁carol	-8376
▁chabo	-8377
▁choạc	-8378
▁choẹt	-8379
▁chuyn	-8380
▁chuyế	-8381
▁chuồi	-8382
▁chuỷn	-8383
▁chành	-8384
▁chénh	-8385
▁chõng	-8386
▁chùng	-8387
▁chũng	-8388
▁chượp	-8389
▁chạng	-8390
▁chảng	-8391
▁cindy	-8392
▁comma	-8393
▁cream	-8394
▁creed	-8395
▁cross	-8396
▁cyrus	-8397
▁devon	-8398
▁diane	-8399
▁diễng	-8400
▁eliza	-8401
▁embou	-8402
▁enter	-8403
▁ethyl	-8404
▁flech	-8405
▁folic	-8406
▁frame	-8407
▁ghita	-8408
▁ghênh	-8409
▁gianh	-8410
▁giant	-8411
▁giooc	-8412
▁giuân	-8413
▁giuộc	-8414
▁giâng	-8415
▁giẳng	-8416
▁golem	-8417
▁gomez	-8418
▁goánh	-8419
▁goăng	-8420
▁guynh	-8421
▁guếch	-8422
▁happy	-8423
▁heard	-8424
▁heavy	-8425
▁hoảnh	-8426
▁huron	-8427
▁huênh	-8428
▁illin	-8429
▁inbox	-8430
▁infdy	-8431
▁inten	-8432
▁ivory	-8433
▁jenny	-8434
▁kawai	-8435
▁kelly	-8436
▁kenya	-8437
▁kerry	-8438
▁kgông	-8439
▁khmer	-8440
▁khoeo	-8441
▁khong	-8442
▁khoáy	-8443
▁khoằm	-8444
▁khuây	-8445
▁khuýn	-8446
▁khuỷu	-8447
▁khênh	-8448
▁khạng	-8449
▁khảnh	-8450
▁khắng	-8451
▁kitty	-8452
▁kiệng	-8453
▁klein	-8454
▁kraft	-8455
▁kylie	-8456
▁laden	-8457
▁larry	-8458
▁lexus	-8459
▁liger	-8460
▁liếng	-8461
▁liệng	-8462
▁loong	-8463
▁lopez	-8464
▁loòng	-8465
▁loạng	-8466
▁lybia	-8467
▁lũvẫn	-8468
▁lướng	-8469
▁malik	-8470
▁mandy	-8471
▁manee	-8472
▁medes	-8473
▁megap	-8474
▁metro	-8475
▁milan	-8476
▁minos	-8477
▁monet	-8478
▁muồng	-8479
▁mômen	-8480
▁nagin	-8481
▁naked	-8482
▁nanna	-8483
▁nghen	-8484
▁nghèn	-8485
▁nghỉa	-8486
▁nghịt	-8487
▁ngoèo	-8488
▁ngoạc	-8489
▁ngoắc	-8490
▁ngoắt	-8491
▁ngoẹo	-8492
▁nguyn	-8493
▁ngòai	-8494
▁ngắng	-8495
▁nhiến	-8496
▁nhiếu	-8497
▁nhiểm	-8498
▁nhiện	-8499
▁nhuốc	-8500
▁nhuốm	-8501
▁nhành	-8502
▁nhách	-8503
▁nhùng	-8504
▁nhặng	-8505
▁nhồng	-8506
▁nhứng	-8507
▁nilon	-8508
▁niêng	-8509
▁niềng	-8510
▁north	-8511
▁nubia	-8512
▁nylon	-8513
▁nàyvề	-8514
▁ocooc	-8515
▁order	-8516
▁osmol	-8517
▁pahsp	-8518
▁party	-8519
▁patin	-8520
▁pepsi	-8521
▁phiếc	-8522
▁phoọc	-8523
▁phéng	-8524
▁phênh	-8525
▁phươt	-8526
▁phậng	-8527
▁phịch	-8528
▁phỗng	-8529
▁place	-8530
▁plaza	-8531
▁pương	-8532
▁quavì	-8533
▁quoài	-8534
▁quyệt	-8535
▁quánh	-8536
▁quích	-8537
▁quạnh	-8538
▁ridge	-8539
▁roaii	-8540
▁rosie	-8541
▁ruynh	-8542
▁rồidạ	-8543
▁salat	-8544
▁sally	-8545
▁satan	-8546
▁setup	-8547
▁shack	-8548
▁shamo	-8549
▁shell	-8550
▁silke	-8551
▁silva	-8552
▁simon	-8553
▁sipri	-8554
▁sonic	-8555
▁soter	-8556
▁sound	-8557
▁sphin	-8558
▁spoil	-8559
▁steps	-8560
▁stock	-8561
▁style	-8562
▁subin	-8563
▁tennn	-8564
▁thaen	-8565
▁thing	-8566
▁thiềm	-8567
▁thiểm	-8568
▁thiển	-8569
▁thoai	-8570
▁three	-8571
▁thuer	-8572
▁thuấn	-8573
▁thuết	-8574
▁thuộm	-8575
▁thòng	-8576
▁thõng	-8577
▁thược	-8578
▁thảng	-8579
▁thếch	-8580
▁thịch	-8581
▁thọai	-8582
▁thững	-8583
▁tiềng	-8584
▁tommy	-8585
▁total	-8586
▁triêu	-8587
▁triện	-8588
▁troai	-8589
▁troam	-8590
▁troeo	-8591
▁troóc	-8592
▁truân	-8593
▁truây	-8594
▁trành	-8595
▁trưsc	-8596
▁trảng	-8597
▁urate	-8598
▁vedan	-8599
▁viber	-8600
▁virut	-8601
▁viêng	-8602
▁vnsfs	-8603
▁vưởng	-8604
▁wushu	-8605
▁xiêng	-8606
▁xiềng	-8607
▁xoong	-8608
▁yemen	-8609
▁yeong	-8610
▁young	-8611
▁yulia	-8612
▁điệng	-8613
▁đoòng	-8614
▁đoảng	-8615
▁đókéo	-8616
▁đươch	-8617
aemenid	-8618
aitavuk	-8619
cathlon	-8620
cầnnước	-8621
derbolt	-8622
enstine	-8623
gomsong	-8624
gration	-8625
icillin	-8626
lamabad	-8627
layport	-8628
llerson	-8629
malayan	-8630
monella	-8631
oglobin	-8632
phrates	-8633
ssinian	-8634
steroid	-8635
sulfide	-8636
ttercup	-8637
▁adater	-8638
▁adrian	-8639
▁airbus	-8640
▁albany	-8641
▁amanda	-8642
▁archim	-8643
▁armani	-8644
▁ashera	-8645
▁ashlee	-8646
▁ashley	-8647
▁audrey	-8648
▁avatar	-8649
▁ballad	-8650
▁barack	-8651
▁barbie	-8652
▁barnes	-8653
▁bengal	-8654
▁bobcat	-8655
▁bonsai	-8656
▁booted	-8657
▁boston	-8658
▁brewer	-8659
▁britam	-8660
▁bỏchạy	-8661
▁calvin	-8662
▁canaan	-8663
▁cannon	-8664
▁cannot	-8665
▁cemani	-8666
▁center	-8667
▁cernan	-8668
▁chiếng	-8669
▁chiềng	-8670
▁choảng	-8671
▁chường	-8672
▁clarke	-8673
▁cotton	-8674
▁diezen	-8675
▁disney	-8676
▁dragon	-8677
▁family	-8678
▁flèche	-8679
▁folate	-8680
▁friend	-8681
▁fullhd	-8682
▁fumosa	-8683
▁garden	-8684
▁geneva	-8685
▁ginger	-8686
▁gioong	-8687
▁global	-8688
▁glycol	-8689
▁gordon	-8690
▁granit	-8691
▁gskill	-8692
▁gvirus	-8693
▁hacker	-8694
▁hahaha	-8695
▁harper	-8696
▁hassan	-8697
▁havana	-8698
▁havard	-8699
▁helium	-8700
▁howard	-8701
▁hyksos	-8702
▁indole	-8703
▁irvine	-8704
▁italia	-8705
▁jessie	-8706
▁khiếng	-8707
▁khiễng	-8708
▁khoành	-8709
▁lauren	-8710
▁lavrov	-8711
▁legbar	-8712
▁louvre	-8713
▁lutein	-8714
▁malala	-8715
▁mekong	-8716
▁mesopo	-8717
▁metham	-8718
▁mining	-8719
▁mitsui	-8720
▁motors	-8721
▁nathan	-8722
▁nghiểm	-8723
▁nghếch	-8724
▁ngoàii	-8725
▁nguyến	-8726
▁nguyển	-8727
▁nguệch	-8728
▁ngâyvì	-8729
▁nissan	-8730
▁office	-8731
▁offset	-8732
▁option	-8733
▁phônng	-8734
▁pierre	-8735
▁plasma	-8736
▁polish	-8737
▁potter	-8738
▁pounds	-8739
▁pushup	-8740
▁renoir	-8741
▁sandal	-8742
▁selena	-8743
▁sergei	-8744
▁server	-8745
▁signat	-8746
▁sitcom	-8747
▁slogan	-8748
▁socola	-8749
▁steven	-8750
▁sulfur	-8751
▁sunday	-8752
▁taylor	-8753
▁thiệut	-8754
▁thomas	-8755
▁thoàng	-8756
▁thuồng	-8757
▁tinder	-8758
▁tribat	-8759
▁truông	-8760
▁turner	-8761
▁tuyêng	-8762
▁typhog	-8763
▁update	-8764
▁valley	-8765
▁venice	-8766
▁veston	-8767
▁viagra	-8768
▁viking	-8769
▁whelan	-8770
▁wilian	-8771
▁wright	-8772
▁xinhẹn	-8773
▁xylanh	-8774
▁yamaha	-8775
▁yamato	-8776
▁yanuko	-8777
▁zambia	-8778
multitas	-8779
opurinol	-8780
sylvania	-8781
▁asyrian	-8782
▁bangkok	-8783
▁blogger	-8784
▁buffett	-8785
▁butyric	-8786
▁candila	-8787
▁challus	-8788
▁compact	-8789
▁courage	-8790
▁cutters	-8791
▁darling	-8792
▁dioxide	-8793
▁ecstasy	-8794
▁egytian	-8795
▁gateway	-8796
▁hepburn	-8797
▁hillary	-8798
▁hoocmon	-8799
▁houston	-8800
▁hungary	-8801
▁hìnhcủa	-8802
▁insider	-8803
▁jetstar	-8804
▁kennedy	-8805
▁kenneth	-8806
▁kimitsu	-8807
▁kristen	-8808
▁làmchim	-8809
▁macbook	-8810
▁minimal	-8811
▁minorca	-8812
▁modiano	-8813
▁monopot	-8814
▁mươilăm	-8815
▁nicotin	-8816
▁nigeria	-8817
▁numlock	-8818
▁odyssey	-8819
▁olympia	-8820
▁onodera	-8821
▁ontario	-8822
▁ottoman	-8823
▁oxidase	-8824
▁parkson	-8825
▁parthia	-8826
▁pcresol	-8827
▁phenoic	-8828
▁picasso	-8829
▁playboy	-8830
▁raccoon	-8831
▁radiant	-8832
▁rihanna	-8833
▁robbins	-8834
▁saunder	-8835
▁schmidt	-8836
▁silicon	-8837
▁somalia	-8838
▁startup	-8839
▁stennis	-8840
▁surface	-8841
▁tadaaam	-8842
▁taedong	-8843
▁taliban	-8844
▁telecom	-8845
▁tempura	-8846
▁tencent	-8847
▁thaksin	-8848
▁twitter	-8849
▁ukraina	-8850
▁uranium	-8851
▁vleague	-8852
▁vlogger	-8853
▁whitney	-8854
▁willian	-8855
bonaparte	-8856
ithsonian	-8857
▁aiushtha	-8858
▁amstrong	-8859
▁angelina	-8860
▁antietam	-8861
▁assassin	-8862
▁brothers	-8863
▁brownred	-8864
▁brussels	-8865
▁business	-8866
▁carbonhy	-8867
▁chặntrái	-8868
▁collagen	-8869
▁cortisol	-8870
▁delivery	-8871
▁dicaprio	-8872
▁dimethyl	-8873
▁dongfeng	-8874
▁dorkling	-8875
▁ethylene	-8876
▁firmware	-8877
▁flagship	-8878
▁flashmob	-8879
▁gargoyle	-8880
▁gigabits	-8881
▁giờnhững	-8882
▁glomerul	-8883
▁hardcore	-8884
▁illinois	-8885
▁itsunori	-8886
▁kangaroo	-8887
▁kelantan	-8888
▁khônglại	-8889
▁kingdoms	-8890
▁leonardo	-8891
▁linkedin	-8892
▁maldives	-8893
▁medvedev	-8894
▁megawatt	-8895
▁mercedes	-8896
▁michelle	-8897
▁michigan	-8898
▁mobifone	-8899
▁nhữngcửa	-8900
▁paraguay	-8901
▁password	-8902
▁phenolic	-8903
▁pinatubo	-8904
▁quangười	-8905
▁receiver	-8906
▁resource	-8907
▁saigonch	-8908
▁sassanid	-8909
▁scarlett	-8910
▁seleucid	-8911
▁shopping	-8912
▁spangled	-8913
▁sphinxes	-8914
▁stanford	-8915
▁sukehiro	-8916
▁tahigems	-8917
▁thatcher	-8918
▁thompson	-8919
▁timeline	-8920
▁training	-8921
▁vandoren	-8922
▁villisca	-8923
▁vinhomes	-8924
▁vladimir	-8925
▁đâychính	-8926
glycosides	-8927
onephritis	-8928
▁alexander	-8929
▁argentina	-8930
▁buttercup	-8931
▁cameraman	-8932
▁challenge	-8933
▁decathlon	-8934
▁elizabeth	-8935
▁euphrates	-8936
▁faverolle	-8937
▁firmenich	-8938
▁followers	-8939
▁fukushima	-8940
▁himalayan	-8941
▁indochina	-8942
▁intensive	-8943
▁islamabad	-8944
▁lightning	-8945
▁livestrea	-8946
▁louboutin	-8947
▁mcdonalds	-8948
▁megapixel	-8949
▁melbourne	-8950
▁myoglobin	-8951
▁parkinson	-8952
▁phosphate	-8953
▁photoshop	-8954
▁plutonium	-8955
▁rembrandt	-8956
▁sacombank	-8957
▁saxophoen	-8958
▁spiderman	-8959
▁stockdale	-8960
▁tillerson	-8961
▁valentine	-8962
▁vermilion	-8963
▁vietravel	-8964
▁vinacomin	-8965
▁vinaphone	-8966
▁wikipedia	-8967
▁yeongdong	-8968
▁abyssinian	-8969
▁achaemenid	-8970
▁amphetamin	-8971
▁archimedes	-8972
▁bangladesh	-8973
▁carotenoic	-8974
▁carotenoid	-8975
▁chromebook	-8976
▁cinderella	-8977
▁faverolles	-8978
▁networking	-8979
▁nonsteroid	-8980
▁penicillin	-8981
▁roundheads	-8982
▁salmonella	-8983
▁seraitavuk	-8984
▁shackleton	-8985
▁subscraibe	-8986
▁sumerakkad	-8987
▁trisulfide	-8988
▁versailles	-8989
▁yanukovych	-8990
multitasking	-8991
▁allopurinol	-8992
▁blackclover	-8993
▁bridenstine	-8994
▁displayport	-8995
▁embouchures	-8996
▁infdyfriend	-8997
▁integration	-8998
▁mesopotania	-8999
▁signaturetm	-9000
▁smithsonian	-9001
▁techcombank	-9002
▁thunderbolt	-9003
▁typhography	-9004
▁vietcombank	-9005
▁wanggomsong	-9006
▁carbonhydrat	-9007
▁khôngcầnnước	-9008
▁transylvania	-9009
▁hollywoodland	-9010
▁monopotassium	-9011
▁louisbonaparte	-9012
▁methamphetamin	-9013
▁saigonchildren	-9014
▁aminoglycosides	-9015
aco	-9016
adi	-9017
ads	-9018
ago	-9019
akk	-9020
ale	-9021
all	-9022
aly	-9023
aph	-9024
api	-9025
art	-9026
ask	-9027
asm	-9028
ata	-9029
bab	-9030
bar	-9031
bps	-9032
bri	-9033
bsc	-9034
bus	-9035
bys	-9036
car	-9037
cbo	-9038
ces	-9039
cou	-9040
cri	-9041
cta	-9042
del	-9043
des	-9044
dil	-9045
dve	-9046
dyf	-9047
ead	-9048
eat	-9049
ebo	-9050
eco	-9051
edy	-9052
ele	-9053
elf	-9054
eli	-9055
eps	-9056
ese	-9057
esi	-9058
etg	-9059
eti	-9060
eto	-9061
eun	-9062
fac	-9063
fes	-9064
fet	-9065
fid	-9066
fri	-9067
gis	-9068
goy	-9069
hah	-9070
hee	-9071
hia	-9072
hig	-9073
hiu	-9074
hle	-9075
hns	-9076
hra	-9077
hyl	-9078
ial	-9079
iat	-9080
ick	-9081
ida	-9082
iet	-9083
ile	-9084
ili	-9085
ire	-9086
isb	-9087
iso	-9088
ist	-9089
ita	-9090
its	-9091
itt	-9092
kip	-9093
kli	-9094
lag	-9095
laz	-9096
ldi	-9097
les	-9098
lia	-9099
ark	-9100
dri	-9101
eff	-9102
eph	-9103
eri	-9104
erv	-9105
ery	-9106
fer	-9107
glo	-9108
hma	-9109
hri	-9110
ler	-9111
lim	-9112
liu	-9113
liv	-9114
lke	-9115
llu	-9116
lob	-9117
lom	-9118
lov	-9119
mas	-9120
mes	-9121
met	-9122
mid	-9123
mos	-9124
nes	-9125
nic	-9126
nis	-9127
not	-9128
oel	-9129
old	-9130
ole	-9131
oli	-9132
oph	-9133
opm	-9134
opu	-9135
orc	-9136
orm	-9137
orp	-9138
oru	-9139
owe	-9140
pag	-9141
par	-9142
phs	-9143
pia	-9144
pic	-9145
pid	-9146
pow	-9147
pti	-9148
rae	-9149
ral	-9150
rca	-9151
red	-9152
rkl	-9153
rli	-9154
rni	-9155
rog	-9156
roi	-9157
ros	-9158
roz	-9159
rty	-9160
sag	-9161
sel	-9162
sey	-9163
sid	-9164
sie	-9165
sis	-9166
sit	-9167
sof	-9168
sta	-9169
sti	-9170
sum	-9171
tac	-9172
tar	-9173
tco	-9174
teg	-9175
tom	-9176
top	-9177
tph	-9178
tro	-9179
tte	-9180
ueg	-9181
uis	-9182
ull	-9183
ult	-9184
unc	-9185
uph	-9186
ure	-9187
urg	-9188
urn	-9189
uss	-9190
ute	-9191
uýt	-9192
var	-9193
ved	-9194
vel	-9195
vie	-9196
vii	-9197
vor	-9198
vuk	-9199
agr	-9200
boo	-9201
ear	-9202
etp	-9203
ffs	-9204
hép	-9205
hít	-9206
iít	-9207
oóc	-9208
oạc	-9209
oọc	-9210
poi	-9211
rou	-9212
ula	-9213
umm	-9214
ust	-9215
war	-9216
wer	-9217
woo	-9218
wor	-9219
wít	-9220
xic	-9221
xid	-9222
xie	-9223
yco	-9224
ymp	-9225
yss	-9226
zac	-9227
zad	-9228
zal	-9229
zer	-9230
zym	-9231
ưsc	-9232
▁et	-9233
▁fp	-9234
▁id	-9235
▁il	-9236
▁ip	-9237
▁ju	-9238
▁od	-9239
▁of	-9240
▁os	-9241
▁ub	-9242
▁uk	-9243
▁uý	-9244
▁ze	-9245
▁zo	-9246
acke	-9247
acki	-9248
ackl	-9249
acks	-9250
adim	-9251
ador	-9252
aita	-9253
alan	-9254
alay	-9255
alen	-9256
alle	-9257
amab	-9258
ames	-9259
amph	-9260
ando	-9261
anel	-9262
ania	-9263
anic	-9264
anid	-9265
anor	-9266
anpa	-9267
anuk	-9268
apor	-9269
arde	-9270
artu	-9271
ashm	-9272
atar	-9273
ator	-9274
aver	-9275
aybo	-9276
ayer	-9277
bald	-9278
bama	-9279
bile	-9280
brig	-9281
byss	-9282
cess	-9283
cmon	-9284
coun	-9285
crom	-9286
cros	-9287
dian	-9288
doll	-9289
drop	-9290
edia	-9291
elaw	-9292
elbo	-9293
elen	-9294
eles	-9295
elin	-9296
ener	-9297
enic	-9298
enid	-9299
aen	-9300
bet	-9301
byl	-9302
ckd	-9303
enc	-9304
eno	-9305
eny	-9306
enz	-9307
fen	-9308
het	-9309
how	-9310
hup	-9311
hét	-9312
hêm	-9313
iêm	-9314
ket	-9315
len	-9316
mol	-9317
oen	-9318
olo	-9319
oét	-9320
oắn	-9321
sli	-9322
umo	-9323
uro	-9324
uốt	-9325
uỗi	-9326
wal	-9327
zen	-9328
ôme	-9329
ưởi	-9330
ặnt	-9331
▁ae	-9332
▁io	-9333
▁ôt	-9334
ades	-9335
amat	-9336
enny	-9337
enri	-9338
eole	-9339
erai	-9340
eram	-9341
erce	-9342
erel	-9343
eren	-9344
eria	-9345
erma	-9346
erod	-9347
eroi	-9348
eron	-9349
erra	-9350
erry	-9351
erty	-9352
erul	-9353
esop	-9354
esor	-9355
esou	-9356
eter	-9357
etin	-9358
etoo	-9359
etra	-9360
etro	-9361
etup	-9362
ffet	-9363
forn	-9364
gems	-9365
ghtn	-9366
gian	-9367
gole	-9368
hius	-9369
hley	-9370
hlon	-9371
hson	-9372
icia	-9373
idas	-9374
imed	-9375
inac	-9376
inas	-9377
inco	-9378
inoi	-9379
ipro	-9380
itas	-9381
ival	-9382
iver	-9383
iêng	-9384
kehi	-9385
krai	-9386
lace	-9387
lash	-9388
lays	-9389
lban	-9390
lenn	-9391
liam	-9392
liba	-9393
lisc	-9394
lius	-9395
llag	-9396
llar	-9397
lmon	-9398
lock	-9399
dre	-9400
eer	-9401
eet	-9402
erk	-9403
etc	-9404
etu	-9405
his	-9406
iêu	-9407
iễn	-9408
lat	-9409
lea	-9410
mit	-9411
orn	-9412
oáp	-9413
oạt	-9414
rbu	-9415
rks	-9416
row	-9417
sas	-9418
sor	-9419
tas	-9420
tat	-9421
uat	-9422
vro	-9423
ấpt	-9424
ọái	-9425
▁av	-9426
▁oc	-9427
▁yt	-9428
▁yu	-9429
▁yế	-9430
▁ưỡ	-9431
ctor	-9432
erbo	-9433
gapi	-9434
hing	-9435
hiền	-9436
inos	-9437
itch	-9438
iệut	-9439
lone	-9440
lyco	-9441
mest	-9442
mstr	-9443
mult	-9444
mura	-9445
ngal	-9446
olat	-9447
olog	-9448
onal	-9449
onar	-9450
onat	-9451
onel	-9452
ones	-9453
onet	-9454
onia	-9455
onic	-9456
orum	-9457
otan	-9458
otas	-9459
otte	-9460
oánh	-9461
oòng	-9462
oảng	-9463
pace	-9464
pard	-9465
pdat	-9466
peri	-9467
play	-9468
poll	-9469
port	-9470
pshi	-9471
puch	-9472
ranc	-9473
rand	-9474
raph	-9475
rbie	-9476
reat	-9477
reed	-9478
renn	-9479
rien	-9480
righ	-9481
rino	-9482
rket	-9483
rkin	-9484
rkli	-9485
rlin	-9486
rmen	-9487
rmon	-9488
rnis	-9489
roid	-9490
rthi	-9491
ruis	-9492
sage	-9493
scri	-9494
sels	-9495
sino	-9496
sium	-9497
soni	-9498
star	-9499
sâ	-9500
tú	-9501
bon	-9502
eol	-9503
fon	-9504
jac	-9505
nhe	-9506
nhá	-9507
nhé	-9508
nhú	-9509
nhẩ	-9510
nhẹ	-9511
nhẻ	-9512
nhế	-9513
nhố	-9514
nhồ	-9515
nhổ	-9516
nhử	-9517
non	-9518
oeo	-9519
ona	-9520
ond	-9521
ons	-9522
ont	-9523
ony	-9524
oth	-9525
oát	-9526
por	-9527
scr	-9528
tre	-9529
uôn	-9530
uật	-9531
uồi	-9532
uổi	-9533
uộc	-9534
von	-9535
▁ec	-9536
▁ră	-9537
▁vậ	-9538
▁wr	-9539
anon	-9540
apri	-9541
cand	-9542
crou	-9543
nter	-9544
onch	-9545
onin	-9546
oàng	-9547
oằng	-9548
phon	-9549
riah	-9550
roph	-9551
stas	-9552
sten	-9553
stin	-9554
taly	-9555
tari	-9556
tens	-9557
terc	-9558
tern	-9559
ther	-9560
ting	-9561
tion	-9562
toni	-9563
undh	-9564
unor	-9565
urag	-9566
ures	-9567
uret	-9568
urne	-9569
ushi	-9570
uter	-9571
utin	-9572
uyền	-9573
uyển	-9574
uyện	-9575
uộng	-9576
vede	-9577
vest	-9578
weat	-9579
word	-9580
yand	-9581
ydra	-9582
ylen	-9583
yria	-9584
ươil	-9585
▁adm	-9586
▁aeg	-9587
▁ahm	-9588
▁aiu	-9589
▁ale	-9590
▁ams	-9591
▁ant	-9592
▁app	-9593
▁ass	-9594
▁ast	-9595
▁bab	-9596
▁bea	-9597
▁bel	-9598
▁big	-9599
cầ	-9600
cồ	-9601
fa	-9602
hỡ	-9603
iè	-9604
ka	-9605
mầ	-9606
mị	-9607
nẵ	-9608
pí	-9609
rử	-9610
tó	-9611
vò	-9612
xở	-9613
đè	-9614
đĩ	-9615
để	-9616
ệu	-9617
▁â	-9618
bif	-9619
fro	-9620
mnh	-9621
ngf	-9622
ngg	-9623
ngh	-9624
ngk	-9625
ngu	-9626
ngò	-9627
ngõ	-9628
ngĩ	-9629
ngơ	-9630
ngư	-9631
ngặ	-9632
ngẹ	-9633
ngọ	-9634
ngỡ	-9635
ngợ	-9636
ngụ	-9637
ngử	-9638
ngự	-9639
nha	-9640
nhi	-9641
nhí	-9642
nhó	-9643
nhả	-9644
nhề	-9645
nhở	-9646
nhữ	-9647
sco	-9648
ube	-9649
uầy	-9650
zab	-9651
àyv	-9652
ớng	-9653
ờng	-9654
▁cp	-9655
▁cv	-9656
▁câ	-9657
▁că	-9658
▁cầ	-9659
▁cằ	-9660
▁cặ	-9661
▁cở	-9662
▁cợ	-9663
▁dệ	-9664
▁lầ	-9665
▁tĩ	-9666
▁tầ	-9667
▁tẩ	-9668
▁tằ	-9669
▁ur	-9670
▁vứ	-9671
▁đé	-9672
▁đạ	-9673
▁đấ	-9674
▁đẫ	-9675
comb	-9676
leag	-9677
oáng	-9678
▁bil	-9679
▁bla	-9680
▁blu	-9681
▁boe	-9682
▁bos	-9683
▁bra	-9684
▁bre	-9685
▁bur	-9686
▁but	-9687
▁buồ	-9688
▁cel	-9689
▁cit	-9690
▁cli	-9691
▁coo	-9692
▁cou	-9693
▁cov	-9694
▁cro	-9695
▁cuộ	-9696
▁del	-9697
▁dic	-9698
▁die	-9699
aq	-9700
bu	-9701
cò	-9702
cũ	-9703
dê	-9704
eq	-9705
gẹ	-9706
hr	-9707
hí	-9708
iú	-9709
iụ	-9710
iừ	-9711
jp	-9712
lh	-9713
lv	-9714
mw	-9715
nf	-9716
ný	-9717
nơ	-9718
oò	-9719
oẹ	-9720
oọ	-9721
pb	-9722
pd	-9723
pă	-9724
pẹ	-9725
qq	-9726
qé	-9727
rỏ	-9728
sờ	-9729
uv	-9730
uẩ	-9731
uỵ	-9732
vè	-9733
vấ	-9734
vẻ	-9735
vể	-9736
wh	-9737
wk	-9738
ww	-9739
wí	-9740
xk	-9741
xv	-9742
xỏ	-9743
xụ	-9744
êy	-9745
đt	-9746
đy	-9747
đậ	-9748
ĩu	-9749
ơt	-9750
ỏc	-9751
ỏn	-9752
ỵc	-9753
▁ệ	-9754
amp	-9755
ert	-9756
gri	-9757
iro	-9758
kad	-9759
ngả	-9760
ngố	-9761
ngỗ	-9762
ngộ	-9763
ngờ	-9764
nhà	-9765
nhă	-9766
nhạ	-9767
onl	-9768
oái	-9769
uym	-9770
▁bầ	-9771
▁cã	-9772
▁ew	-9773
▁hó	-9774
▁oz	-9775
▁đẵ	-9776
▁đặ	-9777
anna	-9778
chel	-9779
dera	-9780
elso	-9781
pbur	-9782
tton	-9783
▁div	-9784
▁diê	-9785
▁diễ	-9786
▁doo	-9787
▁dor	-9788
▁dot	-9789
▁doã	-9790
▁doó	-9791
▁dub	-9792
▁dut	-9793
▁dườ	-9794
▁eli	-9795
▁ell	-9796
▁ent	-9797
▁enz	-9798
▁eth	-9799
bk	-9800
bp	-9801
bt	-9802
bầ	-9803
bẵ	-9804
bẻ	-9805
cd	-9806
cs	-9807
dj	-9808
dn	-9809
dỏ	-9810
dờ	-9811
dụ	-9812
fo	-9813
hz	-9814
hó	-9815
hễ	-9816
iọ	-9817
iở	-9818
jh	-9819
ls	-9820
lé	-9821
ml	-9822
mề	-9823
mợ	-9824
nb	-9825
ns	-9826
nệ	-9827
oy	-9828
pò	-9829
pù	-9830
pư	-9831
pạ	-9832
pằ	-9833
qr	-9834
rẩ	-9835
sw	-9836
sõ	-9837
sị	-9838
tm	-9839
tè	-9840
tở	-9841
ug	-9842
uo	-9843
uí	-9844
uơ	-9845
uặ	-9846
vx	-9847
vợ	-9848
xx	-9849
xè	-9850
xõ	-9851
xề	-9852
zà	-9853
zô	-9854
ưi	-9855
ưm	-9856
ỉm	-9857
ịm	-9858
ỵt	-9859
avy	-9860
ckh	-9861
hon	-9862
int	-9863
mil	-9864
ngá	-9865
ngâ	-9866
ngắ	-9867
nhõ	-9868
nhị	-9869
nhự	-9870
shi	-9871
ơng	-9872
▁bứ	-9873
▁dằ	-9874
▁gũ	-9875
▁gợ	-9876
▁kl	-9877
▁lẫ	-9878
▁tâ	-9879
▁vấ	-9880
aust	-9881
cole	-9882
olle	-9883
▁clo	-9884
▁fac	-9885
▁fes	-9886
▁fil	-9887
▁fre	-9888
▁fri	-9889
▁fue	-9890
▁gag	-9891
▁gat	-9892
▁ges	-9893
▁ghề	-9894
▁giọ	-9895
▁gly	-9896
▁goo	-9897
▁gsy	-9898
▁guý	-9899
av	-9900
bs	-9901
bằ	-9902
bặ	-9903
cv	-9904
cá	-9905
câ	-9906
cữ	-9907
dẳ	-9908
ev	-9909
gr	-9910
gs	-9911
gé	-9912
gê	-9913
gỉ	-9914
iẽ	-9915
jo	-9916
ku	-9917
ké	-9918
lk	-9919
lẩ	-9920
mi	-9921
ms	-9922
mễ	-9923
mử	-9924
np	-9925
nọ	-9926
nỏ	-9927
oz	-9928
pc	-9929
pm	-9930
ql	-9931
rặ	-9932
sg	-9933
sủ	-9934
tằ	-9935
tẻ	-9936
ud	-9937
ut	-9938
uắ	-9939
uẹ	-9940
wb	-9941
wy	-9942
xa	-9943
xổ	-9944
xớ	-9945
yf	-9946
đơ	-9947
ơu	-9948
ẽo	-9949
▁ậ	-9950
▁ẻ	-9951
amm	-9952
cky	-9953
cor	-9954
eel	-9955
hth	-9956
lac	-9957
lib	-9958
lif	-9959
llh	-9960
loc	-9961
nhc	-9962
nhỉ	-9963
rat	-9964
uồn	-9965
▁aa	-9966
▁ak	-9967
▁hắ	-9968
▁hẻ	-9969
▁ou	-9970
▁tw	-9971
▁uổ	-9972
▁xz	-9973
alin	-9974
amil	-9975
amnh	-9976
laza	-9977
mban	-9978
oạng	-9979
tiet	-9980
▁col	-9981
▁giấ	-9982
▁giố	-9983
▁hap	-9984
▁has	-9985
▁hat	-9986
▁hel	-9987
▁her	-9988
▁hil	-9989
▁hoã	-9990
▁htt	-9991
▁huỳ	-9992
▁hyb	-9993
▁hyd	-9994
▁hyo	-9995
▁hướ	-9996
▁inb	-9997
▁inf	-9998
▁ink	-9999
ab	-10000
bì	-10001
bắ	-10002
cm	-10003
cô	-10004
că	-10005
cừ	-10006
dè	-10007
eb	-10008
fl	-10009
gt	-10010
gv	-10011
gy	-10012
hẻ	-10013
ib	-10014
iầ	-10015
iằ	-10016
ju	-10017
lb	-10018
mè	-10019
mả	-10020
nj	-10021
nl	-10022
ny	-10023
nậ	-10024
pp	-10025
pr	-10026
pơ	-10027
pồ	-10028
qu	-10029
rh	-10030
ră	-10031
rẻ	-10032
rế	-10033
rề	-10034
rỉ	-10035
rổ	-10036
sì	-10037
sẹ	-10038
sọ	-10039
sỏ	-10040
sồ	-10041
ts	-10042
tể	-10043
uc	-10044
uf	-10045
vl	-10046
vẩ	-10047
xắ	-10048
xẻ	-10049
xố	-10050
xộ	-10051
yc	-10052
ye	-10053
đé	-10054
đấ	-10055
ừu	-10056
▁ầ	-10057
clo	-10058
dul	-10059
eam	-10060
elb	-10061
enr	-10062
eon	-10063
erc	-10064
hac	-10065
ngà	-10066
vẫn	-10067
yêu	-10068
ầna	-10069
▁bẽ	-10070
▁cl	-10071
▁es	-10072
▁lĩ	-10073
▁sệ	-10074
▁wo	-10075
pang	-10076
rani	-10077
rick	-10078
ttom	-10079
wood	-10080
▁ani	-10081
▁chr	-10082
▁chố	-10083
▁git	-10084
▁giâ	-10085
▁guố	-10086
▁hườ	-10087
▁iph	-10088
▁ira	-10089
▁isa	-10090
▁ish	-10091
▁isl	-10092
▁isr	-10093
▁ist	-10094
▁isu	-10095
▁jad	-10096
▁jen	-10097
▁jer	-10098
▁kak	-10099
bủ	-10100
bừ	-10101
cọ	-10102
cở	-10103
dú	-10104
dơ	-10105
dả	-10106
dằ	-10107
dẻ	-10108
dộ	-10109
dỡ	-10110
ew	-10111
gú	-10112
gả	-10113
gở	-10114
hp	-10115
iw	-10116
iẳ	-10117
iỗ	-10118
iỡ	-10119
je	-10120
kẽ	-10121
lõ	-10122
lọ	-10123
lủ	-10124
mm	-10125
mõ	-10126
nd	-10127
oó	-10128
pe	-10129
pế	-10130
pố	-10131
ró	-10132
rự	-10133
sr	-10134
sù	-10135
sầ	-10136
sậ	-10137
tn	-10138
té	-10139
tý	-10140
tủ	-10141
uã	-10142
uẫ	-10143
uở	-10144
uỷ	-10145
vw	-10146
vê	-10147
ws	-10148
xe	-10149
xà	-10150
xù	-10151
yệ	-10152
zo	-10153
õn	-10154
đô	-10155
đũ	-10156
ỏe	-10157
ỗn	-10158
ửn	-10159
▁ắ	-10160
▁ẵ	-10161
ats	-10162
aux	-10163
eni	-10164
hin	-10165
ill	-10166
jam	-10167
nga	-10168
ngl	-10169
ngạ	-10170
ngầ	-10171
nnh	-10172
ota	-10173
owb	-10174
raf	-10175
res	-10176
roo	-10177
ờnh	-10178
▁nậ	-10179
▁vư	-10180
▁vữ	-10181
bins	-10182
oria	-10183
uồng	-10184
▁kal	-10185
▁kir	-10186
▁kiw	-10187
▁kle	-10188
▁kor	-10189
▁kri	-10190
▁kyn	-10191
▁lap	-10192
▁lar	-10193
▁las	-10194
▁laz	-10195
▁lev	-10196
▁lib	-10197
▁lig	-10198
▁log	-10199
bã	-10200
bể	-10201
bợ	-10202
cr	-10203
ct	-10204
dò	-10205
dặ	-10206
gp	-10207
gẫ	-10208
gớ	-10209
hộ	-10210
iơ	-10211
iư	-10212
iớ	-10213
kĩ	-10214
kẹ	-10215
kệ	-10216
kỵ	-10217
lì	-10218
lả	-10219
lề	-10220
lỉ	-10221
lị	-10222
lố	-10223
lụ	-10224
lữ	-10225
mh	-10226
má	-10227
mò	-10228
mă	-10229
mế	-10230
mỡ	-10231
nù	-10232
nớ	-10233
oj	-10234
oằ	-10235
pé	-10236
qố	-10237
rr	-10238
rẽ	-10239
rể	-10240
rỡ	-10241
sé	-10242
sế	-10243
tĩ	-10244
uè	-10245
uế	-10246
vt	-10247
vú	-10248
vẹ	-10249
vệ	-10250
vỗ	-10251
vở	-10252
vứ	-10253
xạ	-10254
xờ	-10255
ím	-10256
ýc	-10257
đọ	-10258
ũy	-10259
ểu	-10260
ỉu	-10261
dow	-10262
eah	-10263
eta	-10264
gaw	-10265
gue	-10266
hen	-10267
nhì	-10268
nhỡ	-10269
nhợ	-10270
uốn	-10271
▁cé	-10272
▁cắ	-10273
▁lẩ	-10274
▁pt	-10275
▁râ	-10276
▁vă	-10277
fide	-10278
jang	-10279
▁biệ	-10280
▁kat	-10281
▁loo	-10282
▁lov	-10283
▁loé	-10284
▁loó	-10285
▁loạ	-10286
▁loẹ	-10287
▁lur	-10288
▁luô	-10289
▁luẩ	-10290
▁luồ	-10291
▁luộ	-10292
▁lươ	-10293
▁lưỡ	-10294
▁mak	-10295
▁mas	-10296
▁mcd	-10297
▁meg	-10298
▁mis	-10299
bă	-10300
bấ	-10301
bẫ	-10302
dé	-10303
dừ	-10304
fé	-10305
gõ	-10306
gặ	-10307
hu	-10308
hì	-10309
hò	-10310
hẩ	-10311
iặ	-10312
iố	-10313
ký	-10314
kỳ	-10315
lớ	-10316
mằ	-10317
nả	-10318
nị	-10319
nồ	-10320
nứ	-10321
nừ	-10322
od	-10323
oạ	-10324
oặ	-10325
pâ	-10326
rl	-10327
râ	-10328
rõ	-10329
sò	-10330
sĩ	-10331
sũ	-10332
sằ	-10333
sỡ	-10334
tò	-10335
tị	-10336
uá	-10337
uô	-10338
vẫ	-10339
vờ	-10340
vỡ	-10341
vừ	-10342
vự	-10343
xó	-10344
xă	-10345
xầ	-10346
xợ	-10347
yê	-10348
yế	-10349
đá	-10350
đì	-10351
đó	-10352
đẫ	-10353
đổ	-10354
ạị	-10355
ều	-10356
ổn	-10357
ems	-10358
iki	-10359
las	-10360
ngd	-10361
ngô	-10362
ngữ	-10363
nhơ	-10364
nhụ	-10365
out	-10366
uốc	-10367
ệng	-10368
ọai	-10369
▁gử	-10370
▁hă	-10371
▁mứ	-10372
▁nẫ	-10373
▁ov	-10374
▁ré	-10375
▁đẹ	-10376
alds	-10377
arao	-10378
inin	-10379
ưỡng	-10380
▁bak	-10381
▁buf	-10382
▁cườ	-10383
▁guc	-10384
▁ill	-10385
▁mit	-10386
▁miễ	-10387
▁mob	-10388
▁mos	-10389
▁myo	-10390
▁mươ	-10391
▁nak	-10392
▁nas	-10393
▁nat	-10394
▁nav	-10395
▁nec	-10396
▁nei	-10397
▁ngú	-10398
▁nhú	-10399
bá	-10400
bê	-10401
bò	-10402
bỉ	-10403
cp	-10404
cõ	-10405
cẩ	-10406
du	-10407
fi	-10408
gh	-10409
hủ	-10410
hứ	-10411
ih	-10412
iá	-10413
ié	-10414
kl	-10415
kâ	-10416
kí	-10417
kể	-10418
lê	-10419
lò	-10420
lư	-10421
lồ	-10422
lự	-10423
lỵ	-10424
mu	-10425
mã	-10426
mạ	-10427
mồ	-10428
nv	-10429
nấ	-10430
nẩ	-10431
oâ	-10432
oả	-10433
pk	-10434
rá	-10435
rô	-10436
rù	-10437
rẫ	-10438
rậ	-10439
rở	-10440
sụ	-10441
tì	-10442
tă	-10443
tọ	-10444
tự	-10445
xc	-10446
xế	-10447
xị	-10448
yv	-10449
àm	-10450
đc	-10451
đí	-10452
đẽ	-10453
đễ	-10454
ỉn	-10455
ờn	-10456
ngc	-10457
ngã	-10458
ngẫ	-10459
nhớ	-10460
nhủ	-10461
oni	-10462
pac	-10463
upt	-10464
uyê	-10465
uấn	-10466
uất	-10467
uết	-10468
ểng	-10469
ịnh	-10470
▁mẫ	-10471
▁tấ	-10472
▁tợ	-10473
▁wu	-10474
▁đũ	-10475
▁đỉ	-10476
imet	-10477
irus	-10478
oăng	-10479
▁chẵ	-10480
▁dig	-10481
▁dướ	-10482
▁fro	-10483
▁nhầ	-10484
▁nhợ	-10485
▁nic	-10486
▁nig	-10487
▁nil	-10488
▁nis	-10489
▁nor	-10490
▁noz	-10491
▁nub	-10492
▁num	-10493
▁oce	-10494
▁oco	-10495
▁omn	-10496
▁ona	-10497
▁onl	-10498
▁ono	-10499
bố	-10500
bự	-10501
dl	-10502
dẩ	-10503
dợ	-10504
gỏ	-10505
gờ	-10506
hs	-10507
hô	-10508
hầ	-10509
hồ	-10510
ik	-10511
iê	-10512
iạ	-10513
iồ	-10514
lậ	-10515
lẵ	-10516
mì	-10517
mư	-10518
mỗ	-10519
nú	-10520
nắ	-10521
oh	-10522
rũ	-10523
rằ	-10524
rợ	-10525
să	-10526
sỉ	-10527
sợ	-10528
tw	-10529
tã	-10530
tễ	-10531
uấ	-10532
uề	-10533
và	-10534
vư	-10535
vồ	-10536
xy	-10537
đi	-10538
đu	-10539
đả	-10540
đỏ	-10541
ểm	-10542
ệc	-10543
ệp	-10544
ịn	-10545
ớc	-10546
ủy	-10547
▁è	-10548
▁ỏ	-10549
arl	-10550
aus	-10551
ngé	-10552
nhờ	-10553
orl	-10554
oăn	-10555
sso	-10556
won	-10557
▁cẩ	-10558
▁dậ	-10559
▁hẳ	-10560
▁iv	-10561
▁kr	-10562
▁qố	-10563
▁rố	-10564
▁sẩ	-10565
▁sẵ	-10566
▁tc	-10567
▁tă	-10568
▁tẹ	-10569
▁tọ	-10570
▁uw	-10571
▁vể	-10572
▁xẹ	-10573
▁đă	-10574
▁đư	-10575
cana	-10576
erie	-10577
iông	-10578
▁khâ	-10579
▁lic	-10580
▁ont	-10581
▁opt	-10582
▁ord	-10583
▁org	-10584
▁ori	-10585
▁orp	-10586
▁osc	-10587
▁osm	-10588
▁oun	-10589
▁pag	-10590
▁pak	-10591
▁pap	-10592
▁pas	-10593
▁pat	-10594
▁pep	-10595
▁phị	-10596
▁phọ	-10597
▁phỏ	-10598
▁phừ	-10599
bl	-10600
bq	-10601
bè	-10602
bệ	-10603
bỗ	-10604
cơ	-10605
cớ	-10606
do	-10607
dí	-10608
dó	-10609
dĩ	-10610
dẫ	-10611
dớ	-10612
dở	-10613
há	-10614
hả	-10615
hể	-10616
hỉ	-10617
hớ	-10618
hữ	-10619
io	-10620
ií	-10621
lc	-10622
lt	-10623
mn	-10624
mắ	-10625
mẹ	-10626
né	-10627
nì	-10628
nẻ	-10629
nể	-10630
nộ	-10631
nợ	-10632
rg	-10633
rp	-10634
rĩ	-10635
rữ	-10636
sổ	-10637
sử	-10638
tg	-10639
tâ	-10640
tê	-10641
tộ	-10642
uẻ	-10643
vă	-10644
vằ	-10645
vị	-10646
vớ	-10647
wu	-10648
xz	-10649
xá	-10650
xử	-10651
yr	-10652
ôl	-10653
ôt	-10654
đo	-10655
độ	-10656
ngó	-10657
ngù	-10658
ngủ	-10659
nho	-10660
như	-10661
nhắ	-10662
oép	-10663
rru	-10664
uyệ	-10665
uân	-10666
▁bấ	-10667
▁cẳ	-10668
▁dẫ	-10669
▁gọ	-10670
▁hậ	-10671
▁lặ	-10672
▁nư	-10673
▁rử	-10674
▁vự	-10675
apar	-10676
chco	-10677
jong	-10678
lles	-10679
phyn	-10680
rupt	-10681
xand	-10682
ônng	-10683
▁biề	-10684
▁emo	-10685
▁mot	-10686
▁muỗ	-10687
▁pie	-10688
▁pit	-10689
▁pos	-10690
▁pot	-10691
▁pou	-10692
▁pus	-10693
▁put	-10694
▁quằ	-10695
▁quẳ	-10696
▁rag	-10697
▁rec	-10698
▁ree	-10699
ax	-10700
bạ	-10701
bị	-10702
bổ	-10703
cẳ	-10704
dà	-10705
dá	-10706
dệ	-10707
ek	-10708
fb	-10709
fm	-10710
gg	-10711
gu	-10712
gă	-10713
gổ	-10714
hũ	-10715
hơ	-10716
hệ	-10717
ix	-10718
iữ	-10719
lg	-10720
là	-10721
ló	-10722
lú	-10723
lạ	-10724
lắ	-10725
lẽ	-10726
mt	-10727
mỉ	-10728
mọ	-10729
mộ	-10730
mớ	-10731
mỹ	-10732
nu	-10733
nê	-10734
oa	-10735
oe	-10736
oé	-10737
rạ	-10738
rồ	-10739
rộ	-10740
tr	-10741
uả	-10742
vo	-10743
vr	-10744
vã	-10745
vũ	-10746
êt	-10747
đa	-10748
đe	-10749
đh	-10750
ữn	-10751
anp	-10752
cco	-10753
chạ	-10754
ehi	-10755
fic	-10756
hit	-10757
nhâ	-10758
nhù	-10759
nhấ	-10760
nng	-10761
oan	-10762
osh	-10763
ote	-10764
rab	-10765
ubo	-10766
ồid	-10767
▁bắ	-10768
▁gặ	-10769
▁sữ	-10770
▁tặ	-10771
▁tở	-10772
anit	-10773
ccle	-10774
gông	-10775
ogra	-10776
rdon	-10777
tiso	-10778
ữngc	-10779
▁amb	-10780
▁chẳ	-10781
▁chễ	-10782
▁giớ	-10783
▁jes	-10784
▁khă	-10785
▁nap	-10786
▁rev	-10787
▁rid	-10788
▁rih	-10789
▁rob	-10790
▁rou	-10791
▁roy	-10792
▁rub	-10793
▁ruý	-10794
▁ruộ	-10795
▁sac	-10796
▁sap	-10797
▁sas	-10798
▁sat	-10799
af	-10800
bỏ	-10801
cặ	-10802
cứ	-10803
dị	-10804
dổ	-10805
dử	-10806
gn	-10807
gà	-10808
gâ	-10809
gì	-10810
gạ	-10811
hé	-10812
hĩ	-10813
hẫ	-10814
hẹ	-10815
hờ	-10816
hỷ	-10817
iờ	-10818
ko	-10819
kw	-10820
kô	-10821
lã	-10822
lă	-10823
lợ	-10824
lừ	-10825
mỏ	-10826
mứ	-10827
nz	-10828
nầ	-10829
nặ	-10830
oá	-10831
sb	-10832
sd	-10833
sá	-10834
sê	-10835
sứ	-10836
tb	-10837
tấ	-10838
uệ	-10839
uộ	-10840
vu	-10841
vẽ	-10842
vụ	-10843
xu	-10844
xâ	-10845
xã	-10846
xơ	-10847
yg	-10848
yề	-10849
đư	-10850
đẩ	-10851
đẵ	-10852
ũn	-10853
ưc	-10854
ổm	-10855
alk	-10856
ayb	-10857
nhu	-10858
nhô	-10859
nhẫ	-10860
nhẽ	-10861
ono	-10862
oài	-10863
oặt	-10864
rch	-10865
tay	-10866
uội	-10867
▁cấ	-10868
▁dầ	-10869
▁ed	-10870
▁gẩ	-10871
▁qk	-10872
▁xè	-10873
arke	-10874
olem	-10875
outu	-10876
wang	-10877
▁ado	-10878
▁aud	-10879
▁chậ	-10880
▁chắ	-10881
▁ghu	-10882
▁giụ	-10883
▁khậ	-10884
▁kiê	-10885
▁lượ	-10886
▁riề	-10887
▁sav	-10888
▁sco	-10889
▁she	-10890
▁sho	-10891
▁sib	-10892
▁sic	-10893
▁sig	-10894
▁sit	-10895
▁siê	-10896
▁soc	-10897
▁sod	-10898
▁som	-10899
aw	-10900
bé	-10901
bậ	-10902
bồ	-10903
bộ	-10904
cy	-10905
cỗ	-10906
dọ	-10907
gù	-10908
hà	-10909
hư	-10910
hặ	-10911
họ	-10912
hử	-10913
hự	-10914
iz	-10915
kỷ	-10916
lâ	-10917
lĩ	-10918
lũ	-10919
lẻ	-10920
mr	-10921
mà	-10922
mố	-10923
nt	-10924
nó	-10925
nă	-10926
nở	-10927
ob	-10928
oà	-10929
pn	-10930
pừ	-10931
se	-10932
só	-10933
số	-10934
tà	-10935
từ	-10936
uâ	-10937
uậ	-10938
uố	-10939
uồ	-10940
uớ	-10941
vá	-10942
vó	-10943
vậ	-10944
vỏ	-10945
xấ	-10946
yb	-10947
yk	-10948
ys	-10949
ãm	-10950
đâ	-10951
đú	-10952
đặ	-10953
đế	-10954
đồ	-10955
đớ	-10956
đụ	-10957
ứu	-10958
▁ọ	-10959
anx	-10960
anz	-10961
att	-10962
ava	-10963
chí	-10964
fur	-10965
inc	-10966
ngũ	-10967
nhộ	-10968
nhứ	-10969
nhừ	-10970
oán	-10971
rib	-10972
uen	-10973
ump	-10974
yem	-10975
zam	-10976
▁bẵ	-10977
▁dọ	-10978
▁mậ	-10979
▁nẵ	-10980
▁rg	-10981
▁đắ	-10982
raft	-10983
rông	-10984
uton	-10985
uynh	-10986
▁bas	-10987
▁chũ	-10988
▁phẫ	-10989
▁sou	-10990
▁sph	-10991
▁sta	-10992
▁str	-10993
▁sty	-10994
▁sul	-10995
▁sup	-10996
▁sur	-10997
▁suz	-10998
▁tad	-10999
bú	-11000
bẹ	-11001
cà	-11002
cộ	-11003
dõ	-11004
dă	-11005
dư	-11006
dế	-11007
dự	-11008
fg	-11009
gí	-11010
gậ	-11011
gế	-11012
hã	-11013
hắ	-11014
hẳ	-11015
hụ	-11016
hừ	-11017
ià	-11018
iắ	-11019
iễ	-11020
kh	-11021
lm	-11022
lẫ	-11023
mv	-11024
mờ	-11025
mự	-11026
nr	-11027
nư	-11028
nố	-11029
oã	-11030
rã	-11031
rì	-11032
rí	-11033
rệ	-11034
sà	-11035
sư	-11036
sở	-11037
tư	-11038
tế	-11039
tệ	-11040
tỉ	-11041
tử	-11042
tữ	-11043
tỷ	-11044
uê	-11045
uầ	-11046
uổ	-11047
vô	-11048
wa	-11049
yi	-11050
yt	-11051
yy	-11052
zi	-11053
đà	-11054
đẹ	-11055
đẻ	-11056
đờ	-11057
đợ	-11058
ịc	-11059
hiề	-11060
ngừ	-11061
nhặ	-11062
rao	-11063
yam	-11064
ươc	-11065
▁lậ	-11066
▁mấ	-11067
▁mẩ	-11068
▁ot	-11069
▁rậ	-11070
▁tậ	-11071
▁xó	-11072
ffic	-11073
inho	-11074
llop	-11075
syri	-11076
tanb	-11077
▁chẹ	-11078
▁hoắ	-11079
▁khụ	-11080
▁loọ	-11081
▁muộ	-11082
▁ngẹ	-11083
▁phư	-11084
▁quâ	-11085
▁rườ	-11086
▁sto	-11087
▁tah	-11088
▁tal	-11089
▁tar	-11090
▁tat	-11091
▁tax	-11092
▁tes	-11093
▁thấ	-11094
▁thắ	-11095
▁tig	-11096
▁tik	-11097
▁til	-11098
▁tit	-11099
bí	-11100
bư	-11101
bề	-11102
cạ	-11103
cổ	-11104
cử	-11105
dm	-11106
dễ	-11107
dỉ	-11108
ea	-11109
gó	-11110
gô	-11111
gợ	-11112
gữ	-11113
hk	-11114
ho	-11115
hă	-11116
hố	-11117
hỗ	-11118
hở	-11119
ii	-11120
iv	-11121
iă	-11122
iỏ	-11123
lô	-11124
lơ	-11125
lầ	-11126
lệ	-11127
lử	-11128
mc	-11129
mf	-11130
mâ	-11131
mổ	-11132
mụ	-11133
nạ	-11134
nẫ	-11135
nổ	-11136
of	-11137
oẻ	-11138
qù	-11139
rc	-11140
rọ	-11141
rờ	-11142
sã	-11143
sơ	-11144
sẫ	-11145
sẵ	-11146
sệ	-11147
sớ	-11148
tù	-11149
tẹ	-11150
tờ	-11151
vé	-11152
võ	-11153
vơ	-11154
vọ	-11155
vỹ	-11156
xả	-11157
xẹ	-11158
đủ	-11159
đứ	-11160
ĩn	-11161
ơc	-11162
ọá	-11163
▁ẹ	-11164
chc	-11165
dar	-11166
gad	-11167
keu	-11168
ngt	-11169
ngổ	-11170
nhầ	-11171
nor	-11172
oay	-11173
opp	-11174
yli	-11175
yth	-11176
ềng	-11177
ễnh	-11178
▁bẩ	-11179
▁rẫ	-11180
▁rế	-11181
▁đầ	-11182
lime	-11183
logg	-11184
phat	-11185
rack	-11186
ôngl	-11187
▁buý	-11188
▁guế	-11189
▁mex	-11190
▁ngù	-11191
▁nhự	-11192
▁tiề	-11193
▁tiễ	-11194
▁toi	-11195
▁tok	-11196
▁tot	-11197
▁tou	-11198
▁toy	-11199
bọ	-11200
bờ	-11201
bứ	-11202
bử	-11203
ci	-11204
cã	-11205
cé	-11206
cố	-11207
cụ	-11208
củ	-11209
dv	-11210
dầ	-11211
dậ	-11212
eu	-11213
gf	-11214
gố	-11215
gừ	-11216
hy	-11217
hù	-11218
hằ	-11219
hẽ	-11220
hề	-11221
hổ	-11222
iả	-11223
ja	-11224
lè	-11225
lỡ	-11226
mô	-11227
mù	-11228
mẫ	-11229
mở	-11230
mừ	-11231
nâ	-11232
nằ	-11233
nế	-11234
nề	-11235
nỗ	-11236
nụ	-11237
rê	-11238
rò	-11239
rư	-11240
sẩ	-11241
sữ	-11242
tầ	-11243
tề	-11244
uă	-11245
uỳ	-11246
vâ	-11247
vắ	-11248
wn	-11249
xé	-11250
yw	-11251
áí	-11252
ìu	-11253
đê	-11254
đị	-11255
đỡ	-11256
đừ	-11257
đự	-11258
ảu	-11259
ach	-11260
ath	-11261
gle	-11262
hat	-11263
jer	-11264
ngú	-11265
nhã	-11266
uối	-11267
ợng	-11268
▁cy	-11269
▁dẳ	-11270
▁gâ	-11271
▁kâ	-11272
▁nặ	-11273
▁nố	-11274
ackc	-11275
ayam	-11276
enoi	-11277
indy	-11278
phri	-11279
rong	-11280
▁chạ	-11281
▁giù	-11282
▁how	-11283
▁hoă	-11284
▁lop	-11285
▁lyb	-11286
▁miế	-11287
▁quầ	-11288
▁sar	-11289
▁trâ	-11290
▁tră	-11291
▁trấ	-11292
▁trẽ	-11293
▁tur	-11294
▁tuý	-11295
▁tuố	-11296
▁tuồ	-11297
▁twe	-11298
▁typ	-11299
bó	-11300
bẽ	-11301
bế	-11302
cl	-11303
cả	-11304
cậ	-11305
cỡ	-11306
dã	-11307
dù	-11308
dắ	-11309
gấ	-11310
gầ	-11311
gắ	-11312
gọ	-11313
gỡ	-11314
hậ	-11315
iâ	-11316
ió	-11317
km	-11318
kè	-11319
lỗ	-11320
mê	-11321
mũ	-11322
mơ	-11323
nà	-11324
ná	-11325
nò	-11326
nũ	-11327
nẹ	-11328
pg	-11329
pắ	-11330
rú	-11331
rơ	-11332
rắ	-11333
rễ	-11334
rụ	-11335
sạ	-11336
sẽ	-11337
sừ	-11338
tá	-11339
tơ	-11340
tả	-11341
tặ	-11342
tỏ	-11343
uw	-11344
uằ	-11345
uẳ	-11346
uỗ	-11347
ví	-11348
vù	-11349
xĩ	-11350
xư	-11351
xệ	-11352
zậ	-11353
ìa	-11354
đò	-11355
đắ	-11356
ũv	-11357
ưỡ	-11358
ứm	-11359
ank	-11360
ent	-11361
eow	-11362
etr	-11363
jes	-11364
lis	-11365
nhậ	-11366
nhằ	-11367
say	-11368
tha	-11369
tic	-11370
yan	-11371
ầnn	-11372
▁hỏ	-11373
▁lẵ	-11374
▁mt	-11375
▁rặ	-11376
▁xk	-11377
▁đâ	-11378
amer	-11379
core	-11380
ongf	-11381
rity	-11382
▁bườ	-11383
▁cưỡ	-11384
▁dec	-11385
▁ins	-11386
▁khị	-11387
▁quớ	-11388
▁rho	-11389
▁riê	-11390
▁tươ	-11391
▁tướ	-11392
▁tưở	-11393
▁tượ	-11394
▁ubn	-11395
▁ura	-11396
▁uri	-11397
▁vib	-11398
▁vid	-11399
ak	-11400
bớ	-11401
cằ	-11402
dô	-11403
gá	-11404
gò	-11405
gơ	-11406
gồ	-11407
gỗ	-11408
gử	-11409
hc	-11410
hè	-11411
hẵ	-11412
hế	-11413
ir	-11414
iu	-11415
iậ	-11416
kd	-11417
kì	-11418
lí	-11419
lấ	-11420
lẹ	-11421
lỏ	-11422
mé	-11423
mí	-11424
mậ	-11425
mẽ	-11426
mệ	-11427
mỳ	-11428
no	-11429
nã	-11430
nử	-11431
nữ	-11432
pê	-11433
pớ	-11434
rẹ	-11435
rố	-11436
rứ	-11437
sú	-11438
sỹ	-11439
wr	-11440
xừ	-11441
yn	-11442
ók	-11443
ùy	-11444
đù	-11445
đẳ	-11446
đỉ	-11447
đỗ	-11448
ơm	-11449
ưở	-11450
ạu	-11451
▁ấ	-11452
▁ẩ	-11453
▁ẳ	-11454
cas	-11455
dai	-11456
inf	-11457
jai	-11458
lba	-11459
ngồ	-11460
nhl	-11461
nhò	-11462
nhĩ	-11463
nhể	-11464
nhệ	-11465
orb	-11466
syn	-11467
▁dắ	-11468
▁dớ	-11469
▁gf	-11470
▁gấ	-11471
▁lằ	-11472
▁rỗ	-11473
▁đẳ	-11474
atur	-11475
sass	-11476
▁ase	-11477
▁bid	-11478
▁dượ	-11479
▁giẫ	-11480
▁hav	-11481
▁khạ	-11482
▁liê	-11483
▁mượ	-11484
▁phạ	-11485
▁phấ	-11486
▁quặ	-11487
▁sot	-11488
▁thữ	-11489
▁tườ	-11490
▁vap	-11491
▁vie	-11492
▁vik	-11493
▁vil	-11494
▁vir	-11495
▁vis	-11496
▁vit	-11497
▁viê	-11498
▁vlo	-11499
bâ	-11500
bù	-11501
bơ	-11502
bẩ	-11503
cú	-11504
cỏ	-11505
dồ	-11506
ei	-11507
gẩ	-11508
gụ	-11509
hỏ	-11510
iã	-11511
iẫ	-11512
kg	-11513
kạ	-11514
kị	-11515
lù	-11516
lế	-11517
lễ	-11518
lộ	-11519
mẻ	-11520
nờ	-11521
ov	-11522
pà	-11523
pờ	-11524
ré	-11525
rả	-11526
rị	-11527
rớ	-11528
rủ	-11529
si	-11530
tẩ	-11531
tớ	-11532
tứ	-11533
vả	-11534
vầ	-11535
vặ	-11536
vế	-11537
vố	-11538
xằ	-11539
xứ	-11540
đk	-11541
đằ	-11542
đệ	-11543
đố	-11544
aem	-11545
aiu	-11546
inx	-11547
jen	-11548
kin	-11549
ngỏ	-11550
ngớ	-11551
ngứ	-11552
nhẵ	-11553
nhỏ	-11554
▁dâ	-11555
▁lụ	-11556
▁lừ	-11557
▁pâ	-11558
▁rt	-11559
▁vầ	-11560
▁vẩ	-11561
▁vắ	-11562
▁vằ	-11563
▁vặ	-11564
▁vẹ	-11565
▁vộ	-11566
▁xâ	-11567
▁đự	-11568
angk	-11569
ansy	-11570
ayan	-11571
chạy	-11572
etco	-11573
inal	-11574
inhẹ	-11575
oong	-11576
wnre	-11577
xoph	-11578
▁bal	-11579
▁cab	-11580
▁chò	-11581
▁cươ	-11582
▁khự	-11583
▁ngặ	-11584
▁nhằ	-11585
▁nươ	-11586
▁nượ	-11587
▁pow	-11588
▁sươ	-11589
▁ver	-11590
▁vns	-11591
▁vườ	-11592
▁vượ	-11593
▁wei	-11594
▁wel	-11595
▁wif	-11596
▁wil	-11597
▁wus	-11598
▁xil	-11599
bb	-11600
bở	-11601
cắ	-11602
dâ	-11603
eh	-11604
gủ	-11605
hl	-11606
iũ	-11607
kỉ	-11608
mú	-11609
mĩ	-11610
pô	-11611
rấ	-11612
tợ	-11613
tụ	-11614
uạ	-11615
vk	-11616
vữ	-11617
xò	-11618
xồ	-11619
yd	-11620
yễ	-11621
êi	-11622
ợc	-11623
aok	-11624
asy	-11625
con	-11626
nhũ	-11627
oin	-11628
riệ	-11629
sui	-11630
uây	-11631
uần	-11632
ych	-11633
▁cõ	-11634
▁dr	-11635
▁gế	-11636
▁hp	-11637
▁ht	-11638
▁hâ	-11639
▁hấ	-11640
▁hầ	-11641
▁hẫ	-11642
▁hằ	-11643
▁hặ	-11644
▁hị	-11645
▁hỡ	-11646
▁hữ	-11647
▁lâ	-11648
▁lấ	-11649
▁lắ	-11650
▁lế	-11651
▁lỉ	-11652
▁lỏ	-11653
▁lủ	-11654
▁lứ	-11655
▁lử	-11656
▁mặ	-11657
▁nâ	-11658
▁ró	-11659
▁sâ	-11660
▁vl	-11661
▁vt	-11662
cott	-11663
eong	-11664
oanh	-11665
uyết	-11666
▁akk	-11667
▁ama	-11668
▁gié	-11669
▁gri	-11670
▁khể	-11671
▁liệ	-11672
▁môm	-11673
▁ngứ	-11674
▁nhệ	-11675
▁niề	-11676
▁thâ	-11677
▁thè	-11678
▁thõ	-11679
▁thă	-11680
▁thạ	-11681
▁thầ	-11682
▁thẩ	-11683
▁thẫ	-11684
▁thằ	-11685
▁thẳ	-11686
▁thặ	-11687
▁tró	-11688
▁wri	-11689
▁xiề	-11690
▁xuý	-11691
▁xyl	-11692
▁yem	-11693
▁yor	-11694
▁zac	-11695
▁zal	-11696
▁zoo	-11697
▁điê	-11698
▁điề	-11699
dề	-11700
dứ	-11701
gĩ	-11702
gứ	-11703
hâ	-11704
jj	-11705
mấ	-11706
mặ	-11707
ni	-11708
ox	-11709
oè	-11710
sặ	-11711
tl	-11712
tố	-11713
uể	-11714
vĩ	-11715
wo	-11716
xẩ	-11717
đã	-11718
▁ử	-11719
ayf	-11720
dia	-11721
erg	-11722
etn	-11723
gin	-11724
kso	-11725
lan	-11726
ngs	-11727
ngẩ	-11728
oáy	-11729
pan	-11730
typ	-11731
vin	-11732
yri	-11733
▁bk	-11734
▁bq	-11735
▁bâ	-11736
▁bă	-11737
▁bẫ	-11738
▁bậ	-11739
▁bằ	-11740
▁bặ	-11741
▁bẹ	-11742
▁bỗ	-11743
▁bủ	-11744
▁bừ	-11745
▁bữ	-11746
▁ic	-11747
▁mp	-11748
▁mv	-11749
▁mú	-11750
▁mă	-11751
▁mầ	-11752
▁mắ	-11753
▁mằ	-11754
▁mế	-11755
▁mệ	-11756
▁mừ	-11757
▁mử	-11758
▁mự	-11759
isco	-11760
kill	-11761
rain	-11762
▁als	-11763
▁cdm	-11764
▁chù	-11765
▁chă	-11766
▁chấ	-11767
▁chặ	-11768
▁chọ	-11769
▁chụ	-11770
▁dro	-11771
▁giè	-11772
▁giậ	-11773
▁giặ	-11774
▁hac	-11775
▁kaw	-11776
▁khé	-11777
▁liễ	-11778
▁lut	-11779
▁ngá	-11780
▁ngấ	-11781
▁sha	-11782
▁slo	-11783
▁sug	-11784
▁sướ	-11785
▁sườ	-11786
▁thr	-11787
▁thậ	-11788
▁xuố	-11789
acebo	-11790
adesh	-11791
adori	-11792
agram	-11793
agshi	-11794
ainer	-11795
alker	-11796
alley	-11797
ambia	-11798
amino	-11799
dấ	-11800
dố	-11801
hạ	-11802
iấ	-11803
lu	-11804
tv	-11805
tạ	-11806
xê	-11807
xọ	-11808
đầ	-11809
ỏm	-11810
ớu	-11811
ỳn	-11812
ami	-11813
ins	-11814
mst	-11815
ngă	-11816
ope	-11817
oản	-11818
png	-11819
sic	-11820
thy	-11821
tis	-11822
uyề	-11823
ộti	-11824
▁cậ	-11825
▁dố	-11826
▁ir	-11827
▁kạ	-11828
▁kẹ	-11829
▁ní	-11830
▁nò	-11831
▁nù	-11832
▁nú	-11833
▁nă	-11834
▁nả	-11835
▁nấ	-11836
▁nầ	-11837
▁nẩ	-11838
▁nắ	-11839
▁nẹ	-11840
▁nế	-11841
▁nệ	-11842
▁nứ	-11843
▁nừ	-11844
▁nử	-11845
▁pă	-11846
▁pừ	-11847
▁rí	-11848
▁uỳ	-11849
angg	-11850
elli	-11851
eton	-11852
oang	-11853
oren	-11854
orph	-11855
▁chã	-11856
▁ché	-11857
▁chõ	-11858
▁chầ	-11859
▁chẩ	-11860
▁chằ	-11861
▁chổ	-11862
▁chộ	-11863
▁chự	-11864
▁hiệ	-11865
▁leg	-11866
▁nhâ	-11867
▁nhấ	-11868
▁nhậ	-11869
▁nhữ	-11870
▁nyl	-11871
▁nườ	-11872
▁trè	-11873
▁tré	-11874
▁trũ	-11875
▁trầ	-11876
▁trẩ	-11877
▁trậ	-11878
▁trắ	-11879
▁trặ	-11880
▁trỗ	-11881
▁trự	-11882
anfor	-11883
angel	-11884
anggo	-11885
angle	-11886
anver	-11887
aprio	-11888
ashmo	-11889
athan	-11890
bannh	-11891
bouch	-11892
bylon	-11893
casso	-11894
cbook	-11895
chcom	-11896
ckdal	-11897
ckham	-11898
cosid	-11899
ae	-11900
bỡ	-11901
cb	-11902
cù	-11903
cư	-11904
cự	-11905
dỗ	-11906
hú	-11907
lằ	-11908
rừ	-11909
sề	-11910
tổ	-11911
tỵ	-11912
uý	-11913
xô	-11914
ẽm	-11915
aia	-11916
eme	-11917
eor	-11918
eou	-11919
ere	-11920
ien	-11921
ild	-11922
lal	-11923
nhè	-11924
ovy	-11925
oại	-11926
ron	-11927
uya	-11928
èch	-11929
▁bử	-11930
▁nự	-11931
▁pế	-11932
▁sõ	-11933
▁sù	-11934
▁să	-11935
▁sũ	-11936
▁sấ	-11937
▁sầ	-11938
▁sẫ	-11939
▁sậ	-11940
▁sằ	-11941
▁sặ	-11942
▁sẹ	-11943
▁sế	-11944
▁sị	-11945
▁sụ	-11946
▁xố	-11947
▁đú	-11948
erge	-11949
ermi	-11950
ngle	-11951
ngườ	-11952
tham	-11953
vero	-11954
▁arg	-11955
▁bez	-11956
▁int	-11957
▁lav	-11958
▁mek	-11959
▁mườ	-11960
▁ngâ	-11961
▁ngă	-11962
▁ngạ	-11963
▁ngầ	-11964
▁ngẫ	-11965
▁ngậ	-11966
▁ngắ	-11967
▁ngồ	-11968
▁ngợ	-11969
▁ngử	-11970
▁nhl	-11971
▁nhă	-11972
▁nhẩ	-11973
▁nhẫ	-11974
▁nhắ	-11975
▁nhẵ	-11976
▁nhặ	-11977
▁nhẻ	-11978
▁nhế	-11979
▁nhố	-11980
▁nhộ	-11981
▁nhụ	-11982
▁per	-11983
▁ure	-11984
▁was	-11985
▁yan	-11986
croso	-11987
crous	-11988
derbo	-11989
dland	-11990
donia	-11991
ebook	-11992
emani	-11993
enici	-11994
enoic	-11995
enoid	-11996
enter	-11997
entin	-11998
erian	-11999
bô	-12000
fu	-12001
gi	-12002
gư	-12003
nm	-12004
oă	-12005
qk	-12006
rỗ	-12007
óe	-12008
đă	-12009
ựn	-12010
aib	-12011
ait	-12012
etw	-12013
gab	-12014
hâu	-12015
lam	-12016
liz	-12017
lla	-12018
mch	-12019
ner	-12020
ngấ	-12021
oạn	-12022
rgo	-12023
sul	-12024
uẩn	-12025
win	-12026
▁dd	-12027
▁dé	-12028
▁dă	-12029
▁dấ	-12030
▁dẩ	-12031
▁dặ	-12032
▁dẹ	-12033
▁dừ	-12034
▁fr	-12035
▁gd	-12036
▁gp	-12037
▁gs	-12038
▁gv	-12039
▁gy	-12040
▁gé	-12041
▁gă	-12042
▁gầ	-12043
▁gẫ	-12044
▁gắ	-12045
▁gộ	-12046
▁gứ	-12047
▁pí	-12048
▁pó	-12049
▁pạ	-12050
▁pắ	-12051
▁pằ	-12052
▁pố	-12053
▁pớ	-12054
cher	-12055
dyss	-12056
emai	-12057
hinh	-12058
inor	-12059
onop	-12060
rden	-12061
▁alt	-12062
▁diệ	-12063
▁dưỡ	-12064
▁khm	-12065
▁khù	-12066
▁khư	-12067
▁khẩ	-12068
▁khắ	-12069
▁khẳ	-12070
▁khớ	-12071
▁muồ	-12072
▁ngé	-12073
▁ngĩ	-12074
▁ngẩ	-12075
▁nhõ	-12076
▁nud	-12077
▁phâ	-12078
▁phè	-12079
▁phầ	-12080
▁phậ	-12081
▁phồ	-12082
▁phộ	-12083
▁phớ	-12084
▁phứ	-12085
▁suý	-12086
▁win	-12087
ennif	-12088
erman	-12089
ersai	-12090
erson	-12091
erver	-12092
esopo	-12093
esort	-12094
essic	-12095
eston	-12096
estre	-12097
etham	-12098
eting	-12099
az	-12100
bả	-12101
bụ	-12102
cợ	-12103
dg	-12104
ex	-12105
gự	-12106
hm	-12107
nỉ	-12108
rv	-12109
sl	-12110
xd	-12111
xú	-12112
yp	-12113
yu	-12114
đề	-12115
ợu	-12116
ủm	-12117
aid	-12118
coo	-12119
eso	-12120
hiệ	-12121
ngo	-12122
nhọ	-12123
oon	-12124
rgb	-12125
rên	-12126
uyế	-12127
ves	-12128
yên	-12129
éng	-12130
▁dỏ	-12131
▁qé	-12132
▁qù	-12133
▁rá	-12134
▁rấ	-12135
▁rắ	-12136
▁rề	-12137
▁rị	-12138
▁rớ	-12139
▁rừ	-12140
▁rự	-12141
oành	-12142
rook	-12143
tsun	-12144
uông	-12145
xông	-12146
ythu	-12147
ôngc	-12148
▁châ	-12149
▁cướ	-12150
▁fen	-12151
▁gig	-12152
▁giú	-12153
▁giạ	-12154
▁giầ	-12155
▁giằ	-12156
▁giẳ	-12157
▁giế	-12158
▁giễ	-12159
▁giồ	-12160
▁khấ	-12161
▁phă	-12162
▁phắ	-12163
▁phẹ	-12164
▁phỗ	-12165
▁phợ	-12166
▁qui	-12167
▁quã	-12168
▁qué	-12169
▁quí	-12170
▁quă	-12171
▁quấ	-12172
▁quẩ	-12173
▁quậ	-12174
▁quắ	-12175
▁quố	-12176
▁roc	-12177
▁rượ	-12178
▁sax	-12179
▁tiệ	-12180
▁điệ	-12181
▁đườ	-12182
gabit	-12183
gawat	-12184
hamph	-12185
heads	-12186
icill	-12187
iewer	-12188
inban	-12189
inder	-12190
indow	-12191
inhẹn	-12192
inian	-12193
inine	-12194
inoan	-12195
istan	-12196
itter	-12197
krain	-12198
ladim	-12199
cấ	-12200
ef	-12201
fs	-12202
gã	-12203
gũ	-12204
gộ	-12205
kc	-12206
oắ	-12207
rs	-12208
rà	-12209
sn	-12210
sắ	-12211
ué	-12212
èc	-12213
đạ	-12214
▁ẫ	-12215
aig	-12216
aii	-12217
air	-12218
ake	-12219
bty	-12220
cha	-12221
hel	-12222
her	-12223
lai	-12224
llo	-12225
mai	-12226
mou	-12227
oai	-12228
our	-12229
rai	-12230
uột	-12231
òai	-12232
ưới	-12233
ưỡi	-12234
ỏch	-12235
▁dn	-12236
▁gậ	-12237
▁hẵ	-12238
▁mâ	-12239
▁nằ	-12240
▁pé	-12241
▁rầ	-12242
▁rẩ	-12243
▁rở	-12244
▁rứ	-12245
▁xv	-12246
▁xõ	-12247
▁xă	-12248
▁xấ	-12249
▁xầ	-12250
▁xẩ	-12251
▁xắ	-12252
▁xằ	-12253
▁xọ	-12254
▁xớ	-12255
▁xợ	-12256
enni	-12257
inog	-12258
lvan	-12259
roth	-12260
ymou	-12261
ìnhc	-12262
▁biế	-12263
▁bru	-12264
▁cượ	-12265
▁diế	-12266
▁fle	-12267
▁gượ	-12268
▁hiế	-12269
▁hoằ	-12270
▁khở	-12271
▁liế	-12272
▁lườ	-12273
▁miề	-12274
▁ric	-12275
▁riế	-12276
▁siế	-12277
▁viế	-12278
▁xiế	-12279
▁điế	-12280
laybo	-12281
licky	-12282
lifor	-12283
limex	-12284
liver	-12285
llary	-12286
lleng	-12287
llisc	-12288
lobin	-12289
lomer	-12290
lycos	-12291
lymou	-12292
monel	-12293
mpson	-12294
mware	-12295
natur	-12296
người	-12297
nipro	-12298
ochin	-12299
bc	-12300
cí	-12301
cờ	-12302
dd	-12303
fd	-12304
gk	-12305
gl	-12306
gm	-12307
hê	-12308
iù	-12309
kỹ	-12310
lặ	-12311
sk	-12312
sí	-12313
sấ	-12314
sự	-12315
tí	-12316
tậ	-12317
tắ	-12318
ub	-12319
ux	-12320
uà	-12321
vạ	-12322
xẽ	-12323
xỉ	-12324
ảị	-12325
ờm	-12326
▁ỡ	-12327
ann	-12328
ayl	-12329
can	-12330
chi	-12331
chu	-12332
ech	-12333
err	-12334
fan	-12335
hsp	-12336
ich	-12337
kus	-12338
nay	-12339
nch	-12340
och	-12341
oăm	-12342
rol	-12343
tty	-12344
uch	-12345
uyn	-12346
uyể	-12347
uyễ	-12348
xus	-12349
ãnh	-12350
ỵch	-12351
▁gố	-12352
▁iề	-12353
▁mọ	-12354
▁rằ	-12355
▁sắ	-12356
▁tắ	-12357
▁đậ	-12358
▁ươ	-12359
annh	-12360
ican	-12361
llad	-12362
ongd	-12363
▁diề	-12364
▁dươ	-12365
▁giư	-12366
▁giắ	-12367
▁gươ	-12368
▁hah	-12369
▁hiề	-12370
▁hươ	-12371
▁kiề	-12372
▁lik	-12373
▁liề	-12374
▁nhồ	-12375
▁nok	-12376
▁pươ	-12377
▁roo	-12378
▁tip	-12379
▁trạ	-12380
▁trế	-12381
▁viề	-12382
▁vươ	-12383
▁xuy	-12384
▁xươ	-12385
▁đươ	-12386
aland	-12387
olate	-12388
olemy	-12389
oleon	-12390
olles	-12391
onald	-12392
onard	-12393
onate	-12394
onics	-12395
opmar	-12396
otass	-12397
oween	-12398
owers	-12399
bà	-12400
hõ	-12401
ig	-12402
iò	-12403
kê	-12404
kế	-12405
lứ	-12406
mó	-12407
mẩ	-12408
nn	-12409
nô	-12410
nự	-12411
pó	-12412
rt	-12413
sộ	-12414
uz	-12415
xí	-12416
ưs	-12417
anb	-12418
anc	-12419
ane	-12420
anf	-12421
anm	-12422
ans	-12423
anv	-12424
aya	-12425
aye	-12426
ayp	-12427
ays	-12428
chm	-12429
cle	-12430
dom	-12431
hop	-12432
jay	-12433
ngậ	-12434
nướ	-12435
onh	-12436
oây	-12437
oắt	-12438
ret	-12439
san	-12440
tai	-12441
uay	-12442
way	-12443
xan	-12444
zậy	-12445
âyv	-12446
ẻng	-12447
▁sw	-12448
▁vâ	-12449
bonh	-12450
chil	-12451
eman	-12452
ezen	-12453
llow	-12454
orua	-12455
tyri	-12456
âych	-12457
▁alb	-12458
▁cer	-12459
▁chĩ	-12460
▁giă	-12461
▁hoả	-12462
▁khủ	-12463
▁kiế	-12464
▁lướ	-12465
▁miệ	-12466
▁mướ	-12467
▁niệ	-12468
▁nob	-12469
▁nướ	-12470
▁rướ	-12471
▁siz	-12472
▁thá	-12473
▁toẹ	-12474
▁vướ	-12475
▁xuẩ	-12476
▁xướ	-12477
▁điể	-12478
▁đướ	-12479
cotin	-12480
inton	-12481
oxide	-12482
pburn	-12483
phate	-12484
phinx	-12485
phrit	-12486
pines	-12487
power	-12488
ragon	-12489
rames	-12490
randt	-12491
ranor	-12492
rates	-12493
rbonh	-12494
redat	-12495
riden	-12496
ridge	-12497
ritam	-12498
rkson	-12499
dh	-12500
dt	-12501
dì	-12502
dữ	-12503
ej	-12504
fe	-12505
fp	-12506
hợ	-12507
lở	-12508
mx	-12509
mủ	-12510
nk	-12511
nỡ	-12512
sô	-12513
sỗ	-12514
tỳ	-12515
ui	-12516
uỹ	-12517
vỉ	-12518
aam	-12519
ame	-12520
ams	-12521
aur	-12522
auy	-12523
bam	-12524
emb	-12525
emo	-12526
emp	-12527
ens	-12528
fam	-12529
hir	-12530
hết	-12531
iam	-12532
lem	-12533
oam	-12534
oao	-12535
oải	-12536
oắc	-12537
oặc	-12538
pin	-12539
pri	-12540
pro	-12541
rac	-12542
yến	-12543
▁lă	-12544
▁vẫ	-12545
▁xộ	-12546
▁yê	-12547
▁đằ	-12548
acom	-12549
ange	-12550
angl	-12551
angs	-12552
face	-12553
goms	-12554
rame	-12555
▁coc	-12556
▁dir	-12557
▁diể	-12558
▁emb	-12559
▁emp	-12560
▁hiể	-12561
▁hol	-12562
▁hoo	-12563
▁hoó	-12564
▁hoặ	-12565
▁jet	-12566
▁kiể	-12567
▁phẳ	-12568
▁pri	-12569
▁quẫ	-12570
▁quẹ	-12571
▁riệ	-12572
▁suk	-12573
▁tiể	-12574
▁trẫ	-12575
▁trố	-12576
▁ved	-12577
▁viể	-12578
▁đók	-12579
▁đôl	-12580
rling	-12581
rmeni	-12582
rmone	-12583
rolin	-12584
ruise	-12585
secom	-12586
sines	-12587
splay	-12588
sport	-12589
stian	-12590
stral	-12591
syria	-12592
talia	-12593
tavuk	-12594
tegra	-12595
tercu	-12596
teroi	-12597
thern	-12598
thuat	-12599
bữ	-12600
cê	-12601
dũ	-12602
dẹ	-12603
hấ	-12604
hị	-12605
iô	-12606
kề	-12607
lý	-12608
lờ	-12609
lỳ	-12610
mb	-12611
mỷ	-12612
nè	-12613
ní	-12614
pá	-12615
rè	-12616
rầ	-12617
sả	-12618
sẻ	-12619
tồ	-12620
vộ	-12621
xì	-12622
yể	-12623
amb	-12624
anu	-12625
aud	-12626
aun	-12627
bie	-12628
den	-12629
din	-12630
ein	-12631
enj	-12632
ets	-12633
htn	-12634
inb	-12635
ini	-12636
ink	-12637
iny	-12638
nan	-12639
nin	-12640
oác	-12641
ppo	-12642
rau	-12643
rin	-12644
sin	-12645
uin	-12646
uấy	-12647
uận	-12648
ynh	-12649
yết	-12650
zin	-12651
àii	-12652
ướm	-12653
▁ax	-12654
▁gớ	-12655
▁ol	-12656
▁pv	-12657
▁xò	-12658
▁đẩ	-12659
anga	-12660
oung	-12661
rote	-12662
unga	-12663
uống	-12664
▁biể	-12665
▁blo	-12666
▁bươ	-12667
▁cin	-12668
▁dav	-12669
▁hyu	-12670
▁joh	-12671
▁kik	-12672
▁loã	-12673
▁nep	-12674
▁pau	-12675
▁rac	-12676
▁soạ	-12677
essie	-12678
milli	-12679
stine	-12680
tland	-12681
tonin	-12682
tters	-12683
uetoo	-12684
ukovy	-12685
ulari	-12686
ulone	-12687
ummer	-12688
umosa	-12689
undhe	-12690
unori	-12691
urino	-12692
ushim	-12693
ustin	-12694
uters	-12695
vanna	-12696
vatar	-12697
virus	-12698
witch	-12699
ydrat	-12700
ylene	-12701
yrian	-12702
ytian	-12703
▁abys	-12704
▁acco	-12705
▁acha	-12706
▁adat	-12707
▁adri	-12708
▁airb	-12709
▁aius	-12710
▁aman	-12711
▁amer	-12712
▁amph	-12713
▁amst	-12714
▁anim	-12715
▁arau	-12716
▁arch	-12717
▁aust	-12718
▁bant	-12719
▁barn	-12720
▁bear	-12721
▁benj	-12722
▁blac	-12723
▁blad	-12724
▁bobc	-12725
▁bons	-12726
▁boos	-12727
▁boot	-12728
▁brah	-12729
▁brew	-12730
▁brow	-12731
▁brus	-12732
▁buty	-12733
▁calc	-12734
▁camb	-12735
▁came	-12736
▁camp	-12737
▁cana	-12738
▁cand	-12739
▁canx	-12740
▁carb	-12741
▁cent	-12742
▁cern	-12743
▁chab	-12744
▁chal	-12745
▁chiê	-12746
▁chiề	-12747
▁chiể	-12748
▁chos	-12749
▁choà	-12750
▁choá	-12751
▁choé	-12752
▁choạ	-12753
▁choả	-12754
▁choẹ	-12755
▁chri	-12756
▁chro	-12757
▁chuý	-12758
▁chuẩ	-12759
▁chuỷ	-12760
▁chươ	-12761
▁chướ	-12762
▁chườ	-12763
▁chượ	-12764
▁clar	-12765
▁clor	-12766
▁coch	-12767
▁comb	-12768
▁comm	-12769
▁cont	-12770
▁corn	-12771
▁cort	-12772
▁cret	-12773
▁cấpt	-12774
▁dies	-12775
▁disn	-12776
▁duyệ	-12777
▁ecst	-12778
▁emai	-12779
▁embo	-12780
▁empi	-12781
▁ener	-12782
▁euph	-12783
▁fest	-12784
▁flag	-12785
▁foli	-12786
▁foll	-12787
▁forb	-12788
▁form	-12789
▁gami	-12790
▁garn	-12791
▁gate	-12792
▁gene	-12793
▁ghit	-12794
▁ging	-12795
▁gioo	-12796
▁gith	-12797
▁giươ	-12798
▁giườ	-12799
▁glob	-12800
▁gome	-12801
▁goog	-12802
▁gran	-12803
▁gski	-12804
▁guar	-12805
▁gucc	-12806
▁hack	-12807
▁hall	-12808
▁hamb	-12809
▁hamm	-12810
▁hamp	-12811
▁hard	-12812
▁harp	-12813
▁harr	-12814
▁harv	-12815
▁hass	-12816
▁hear	-12817
▁heli	-12818
▁hero	-12819
▁holl	-12820
▁hond	-12821
▁hone	-12822
▁hooc	-12823
▁hous	-12824
▁huyệ	-12825
▁hyor	-12826
▁hyun	-12827
▁inbo	-12828
▁inky	-12829
▁inst	-12830
▁ishi	-12831
▁isra	-12832
▁jers	-12833
▁juli	-12834
▁kell	-12835
▁kend	-12836
▁kenn	-12837
▁keny	-12838
▁khiê	-12839
▁khiể	-12840
▁khiễ	-12841
▁khoã	-12842
▁khoé	-12843
▁khoả	-12844
▁khoắ	-12845
▁khoằ	-12846
▁khuâ	-12847
▁khuý	-12848
▁khuẩ	-12849
▁khuế	-12850
▁khuỷ	-12851
▁khươ	-12852
▁khướ	-12853
▁kimi	-12854
▁kyli	-12855
▁lapt	-12856
▁laur	-12857
▁legb	-12858
▁levi	-12859
▁lind	-12860
▁lond	-12861
▁louv	-12862
▁lurk	-12863
▁lute	-12864
▁mace	-12865
▁main	-12866
▁make	-12867
▁mali	-12868
▁mand	-12869
▁mane	-12870
▁mani	-12871
▁mari	-12872
▁matx	-12873
▁maye	-12874
▁meor	-12875
▁merc	-12876
▁merk	-12877
▁mile	-12878
▁muab	-12879
▁muas	-12880
▁myan	-12881
▁myog	-12882
▁nake	-12883
▁nann	-12884
▁nath	-12885
▁natu	-12886
▁netw	-12887
▁nghì	-12888
▁nghí	-12889
▁nghẹ	-12890
▁nghẽ	-12891
▁nghế	-12892
▁ngoá	-12893
▁ngoã	-12894
▁ngoè	-12895
▁ngoạ	-12896
▁ngoằ	-12897
▁ngoẹ	-12898
▁nguệ	-12899
▁ngươ	-12900
▁ngướ	-12901
▁ngườ	-12902
▁ngượ	-12903
▁nhiế	-12904
▁nhiề	-12905
▁nhiể	-12906
▁nhiệ	-12907
▁nhoẻ	-12908
▁nhuy	-12909
▁nhuố	-12910
▁nhuộ	-12911
▁nhườ	-12912
▁nhưỡ	-12913
▁nhượ	-12914
▁niss	-12915
▁nons	-12916
▁nàyv	-12917
▁offs	-12918
▁olym	-12919
▁onag	-12920
▁onta	-12921
▁orig	-12922
▁oxid	-12923
▁oxyg	-12924
▁para	-12925
▁pari	-12926
▁pass	-12927
▁penc	-12928
▁peps	-12929
▁phil	-12930
▁phiê	-12931
▁phiế	-12932
▁phiề	-12933
▁phiệ	-12934
▁phoo	-12935
▁phos	-12936
▁phot	-12937
▁phươ	-12938
▁phướ	-12939
▁phườ	-12940
▁phượ	-12941
▁pian	-12942
▁picn	-12943
▁pier	-12944
▁pina	-12945
▁pixc	-12946
▁plan	-12947
▁plas	-12948
▁poli	-12949
▁poun	-12950
▁push	-12951
▁quav	-12952
▁quyề	-12953
▁quyể	-12954
▁quyệ	-12955
▁radi	-12956
▁ragd	-12957
▁rece	-12958
▁remb	-12959
▁robo	-12960
▁roun	-12961
▁rump	-12962
▁rồid	-12963
▁saco	-12964
▁saig	-12965
▁sall	-12966
▁sams	-12967
▁sand	-12968
▁sara	-12969
▁sass	-12970
▁saun	-12971
▁sele	-12972
▁self	-12973
▁seou	-12974
▁seri	-12975
▁sero	-12976
▁shac	-12977
▁sham	-12978
▁shel	-12979
▁shep	-12980
▁shis	-12981
▁sili	-12982
▁silk	-12983
▁silv	-12984
▁simp	-12985
▁slog	-12986
▁smar	-12987
▁smit	-12988
▁soco	-12989
▁sodi	-12990
▁soun	-12991
▁sphy	-12992
▁spid	-12993
▁spoi	-12994
▁stac	-12995
▁stas	-12996
▁stat	-12997
▁sten	-12998
▁stev	-12999
▁stic	-13000
▁stor	-13001
▁subc	-13002
▁sulf	-13003
▁sund	-13004
▁surf	-13005
▁syri	-13006
▁tabl	-13007
▁tada	-13008
▁taed	-13009
▁tali	-13010
▁taro	-13011
▁tayl	-13012
▁temp	-13013
▁tenc	-13014
▁terr	-13015
▁thak	-13016
▁that	-13017
▁thiê	-13018
▁thiế	-13019
▁thiề	-13020
▁thiể	-13021
▁thiệ	-13022
▁thoó	-13023
▁thre	-13024
▁thue	-13025
▁thuô	-13026
▁thuý	-13027
▁thuấ	-13028
▁thuẫ	-13029
▁thuộ	-13030
▁thươ	-13031
▁thướ	-13032
▁thườ	-13033
▁thượ	-13034
▁till	-13035
▁tind	-13036
▁toil	-13037
▁toky	-13038
▁tomm	-13039
▁toyo	-13040
▁trib	-13041
▁tris	-13042
▁trit	-13043
▁triế	-13044
▁triề	-13045
▁triể	-13046
▁triệ	-13047
▁trươ	-13048
▁trướ	-13049
▁trườ	-13050
▁trượ	-13051
▁tuab	-13052
▁turn	-13053
▁tuyê	-13054
▁tuyể	-13055
▁tuyệ	-13056
▁typh	-13057
▁unit	-13058
▁vand	-13059
▁veni	-13060
▁viag	-13061
▁vien	-13062
▁vill	-13063
▁viru	-13064
▁vnsf	-13065
▁webs	-13066
▁wels	-13067
▁whee	-13068
▁whel	-13069
▁wili	-13070
▁worl	-13071
▁wrig	-13072
▁wush	-13073
▁yama	-13074
▁yuli	-13075
acklet	-13076
amabad	-13077
anford	-13078
angười	-13079
aparte	-13080
aphone	-13081
araoke	-13082
arlett	-13083
ashing	-13084
asking	-13085
atinin	-13086
bright	-13087
chimed	-13088
chmidt	-13089
comban	-13090
cromor	-13091
derbol	-13092
dyssey	-13093
ealand	-13094
elbour	-13095
elecom	-13096
elgian	-13097
emenid	-13098
eoleon	-13099
erodic	-13100
estrea	-13101
etamin	-13102
etting	-13103
gabits	-13104
gawatt	-13105
gentin	-13106
gnatur	-13107
goleon	-13108
hahaha	-13109
hitney	-13110
illiam	-13111
illian	-13112
indows	-13113
ington	-13114
inogly	-13115
itolog	-13116
kehiro	-13117
ladimi	-13118
league	-13119
lexand	-13120
linton	-13121
livery	-13122
llagen	-13123
llinoi	-13124
llopur	-13125
logger	-13126
lvania	-13127
lympia	-13128
lympic	-13129
mebook	-13130
morphs	-13131
multit	-13132
ockdal	-13133
onardo	-13134
ophone	-13135
opmart	-13136
opotan	-13137
orking	-13138
phogra	-13139
poleon	-13140
rancis	-13141
ranium	-13142
rkland	-13143
rkling	-13144
rmware	-13145
rocess	-13146
sassin	-13147
scribe	-13148
sonian	-13149
splayp	-13150
tegrat	-13151
teroid	-13152
tinson	-13153
tolemy	-13154
tphone	-13155
ttercu	-13156
ttoman	-13157
ulfide	-13158
urinol	-13159
viewer	-13160
weater	-13161
witter	-13162
zabeth	-13163
ầnnước	-13164
▁abyss	-13165
▁aiush	-13166
▁alban	-13167
▁aliba	-13168
▁amand	-13169
▁amstr	-13170
▁andro	-13171
▁apoll	-13172
▁arauc	-13173
▁arman	-13174
▁asher	-13175
▁ashle	-13176
▁bangk	-13177
▁bangl	-13178
▁beard	-13179
▁boote	-13180
▁brenn	-13181
▁broth	-13182
▁campu	-13183
▁canad	-13184
▁carbo	-13185
▁carot	-13186
▁chall	-13187
▁chann	-13188
▁chica	-13189
▁chuyể	-13190
▁chuyệ	-13191
▁chặnt	-13192
▁corti	-13193
▁coura	-13194
▁crack	-13195
▁creat	-13196
▁decat	-13197
▁dicap	-13198
▁dimet	-13199
▁disli	-13200
▁divid	-13201
▁donal	-13202
▁dongf	-13203
▁euroz	-13204
▁famil	-13205
▁fanpa	-13206
▁faver	-13207
▁flags	-13208
▁flash	-13209
▁flèch	-13210
▁formo	-13211
▁fukus	-13212
▁fullh	-13213
▁gargo	-13214
▁gatew	-13215
▁githu	-13216
▁giờnh	-13217
▁guard	-13218
▁hamps	-13219
▁hardc	-13220
▁havan	-13221
▁himal	-13222
▁holly	-13223
▁hunga	-13224
▁hykso	-13225
▁hyund	-13226
▁hìnhc	-13227
▁indon	-13228
▁indyf	-13229
▁inter	-13230
▁ishim	-13231
▁istan	-13232
▁itsun	-13233
▁jacks	-13234
▁jetst	-13235
▁johns	-13236
▁kanga	-13237
▁kelan	-13238
▁kelli	-13239
▁kenne	-13240
▁kimit	-13241
▁kingd	-13242
▁krist	-13243
▁langs	-13244
▁liber	-13245
▁linds	-13246
▁linke	-13247
▁lives	-13248
▁loubo	-13249
▁làmch	-13250
▁malal	-13251
▁maldi	-13252
▁manil	-13253
▁massa	-13254
▁mathi	-13255
▁mcdon	-13256
▁medve	-13257
▁merce	-13258
▁micha	-13259
▁michi	-13260
▁minim	-13261
▁minor	-13262
▁mitsu	-13263
▁mobif	-13264
▁modul	-13265
▁monop	-13266
▁motor	-13267
▁munch	-13268
▁mươil	-13269
▁nghiê	-13270
▁nghiề	-13271
▁nghiể	-13272
▁nghiễ	-13273
▁nghiệ	-13274
▁nguyể	-13275
▁nguyễ	-13276
▁nguyệ	-13277
▁ngâyv	-13278
▁niger	-13279
▁nitro	-13280
▁numlo	-13281
▁offic	-13282
▁omnip	-13283
▁onlin	-13284
▁organ	-13285
▁pakis	-13286
▁parag	-13287
▁passw	-13288
▁patri	-13289
▁pcres	-13290
▁peter	-13291
▁petro	-13292
▁pheno	-13293
▁phili	-13294
▁pinat	-13295
▁pound	-13296
▁proph	-13297
▁prote	-13298
▁recei	-13299
▁rembr	-13300
▁renoi	-13301
▁resou	-13302
▁rihan	-13303
▁rober	-13304
▁sacom	-13305
▁savan	-13306
▁scand	-13307
▁scott	-13308
▁selen	-13309
▁serai	-13310
▁seram	-13311
▁serge	-13312
▁shope	-13313
▁shopp	-13314
▁showb	-13315
▁siber	-13316
▁silic	-13317
▁singa	-13318
▁singu	-13319
▁smith	-13320
▁somal	-13321
▁south	-13322
▁spang	-13323
▁stenn	-13324
▁super	-13325
▁tadaa	-13326
▁tahig	-13327
▁teren	-13328
▁terra	-13329
▁thaks	-13330
▁timel	-13331
▁train	-13332
▁trean	-13333
▁truyể	-13334
▁ukrai	-13335
▁updat	-13336
▁usbty	-13337
▁valen	-13338
▁venic	-13339
▁vermi	-13340
▁vienn	-13341
▁vietg	-13342
▁vietn	-13343
▁viett	-13344
▁villi	-13345
▁vinac	-13346
▁vinal	-13347
▁vinas	-13348
▁vinco	-13349
▁vinho	-13350
▁vitam	-13351
▁wheez	-13352
▁wikip	-13353
▁wyand	-13354
▁yamat	-13355
▁youtu	-13356
▁đâych	-13357
acebook	-13358
amnhanh	-13359
andotte	-13360
atinine	-13361
bouchur	-13362
cosides	-13363
cotland	-13364
donalds	-13365
elaware	-13366
ermilli	-13367
ersaill	-13368
estival	-13369
gapixel	-13370
gentina	-13371
gonchil	-13372
hamphet	-13373
iderman	-13374
itology	-13375
ladimir	-13376
llinois	-13377
lymouth	-13378
mstrong	-13379
nhydrat	-13380
ockdale	-13381
ongdong	-13382
oodland	-13383
opotass	-13384
phinxes	-13385
rbonate	-13386
reoleon	-13387
ridenst	-13388
ruption	-13389
russels	-13390
stralor	-13391
tensive	-13392
thuatso	-13393
thylene	-13394
uetooth	-13395
ukovych	-13396
undhead	-13397
verolle	-13398
working	-13399
xophone	-13400
▁airlin	-13401
▁americ	-13402
▁amphet	-13403
▁antiet	-13404
▁assyri	-13405
▁blackc	-13406
▁buffet	-13407
▁butter	-13408
▁centim	-13409
▁challe	-13410
▁christ	-13411
▁cinder	-13412
▁commen	-13413
▁compac	-13414
▁compan	-13415
▁decath	-13416
▁dimeth	-13417
▁ecstas	-13418
▁euphra	-13419
▁glomer	-13420
▁hallow	-13421
▁hambur	-13422
▁hammon	-13423
▁hollyw	-13424
▁homest	-13425
▁hungar	-13426
▁hydrop	-13427
▁instag	-13428
▁islama	-13429
▁jennif	-13430
▁jessic	-13431
▁kennet	-13432
▁khôngc	-13433
▁khôngl	-13434
▁leviat	-13435
▁lightn	-13436
▁linked	-13437
▁livesh	-13438
▁loubou	-13439
▁louisb	-13440
▁malays	-13441
▁maldiv	-13442
▁merced	-13443
▁michel	-13444
▁modian	-13445
▁munchk	-13446
▁myoglo	-13447
▁nhữngc	-13448
▁offici	-13449
▁onagad	-13450
▁onoder	-13451
▁orping	-13452
▁paragu	-13453
▁parkin	-13454
▁parthi	-13455
▁pattin	-13456
▁penici	-13457
▁peterb	-13458
▁phenoi	-13459
▁philip	-13460
▁phosph	-13461
▁photos	-13462
▁pinatu	-13463
▁playbo	-13464
▁pluton	-13465
▁predat	-13466
▁radian	-13467
▁robbin	-13468
▁saigon	-13469
▁salmon	-13470
▁sassan	-13471
▁saxoph	-13472
▁showbi	-13473
▁singap	-13474
▁singul	-13475
▁startu	-13476
▁subscr	-13477
▁sumera	-13478
▁tencen	-13479
▁terrap	-13480
▁terren	-13481
▁thatch	-13482
▁tiller	-13483
▁transy	-13484
▁twitch	-13485
▁ukrain	-13486
▁vandor	-13487
▁victor	-13488
▁vietco	-13489
▁vietin	-13490
▁vietra	-13491
▁vinash	-13492
▁vinhom	-13493
▁wanggo	-13494
ackleton	-13495
bannhanh	-13496
chimedes	-13497
cromorph	-13498
▁	-13499
n	-13500
h	-13501
t	-13502
i	-13503
c	-13504
g	-13505
a	-13506
m	-13507
u	-13508
đ	-13509
à	-13510
o	-13511
v	-13512
l	-13513
ư	-13514
r	-13515
á	-13516
y	-13517
b	-13518
p	-13519
k	-13520
ô	-13521
s	-13522
ó	-13523
ế	-13524
ạ	-13525
ộ	-13526
ờ	-13527
ì	-13528
ả	-13529
ê	-13530
ệ	-13531
d	-13532
â	-13533
ố	-13534
ớ	-13535
ấ	-13536
ơ	-13537
ề	-13538
q	-13539
ủ	-13540
ể	-13541
ă	-13542
ợ	-13543
ị	-13544
e	-13545
ậ	-13546
í	-13547
x	-13548
ầ	-13549
ú	-13550
ự	-13551
ữ	-13552
ọ	-13553
ứ	-13554
ở	-13555
ã	-13556
ồ	-13557
ắ	-13558
ụ	-13559
ừ	-13560
ò	-13561
ổ	-13562
ù	-13563
ũ	-13564
ặ	-13565
ý	-13566
ẽ	-13567
ỉ	-13568
ỏ	-13569
ử	-13570
ằ	-13571
é	-13572
ĩ	-13573
ẩ	-13574
ễ	-13575
ẫ	-13576
ỗ	-13577
ẹ	-13578
ỹ	-13579
ẻ	-13580
ỳ	-13581
è	-13582
õ	-13583
ỡ	-13584
ẳ	-13585
ỷ	-13586
ẵ	-13587
w	-13588
f	-13589
z	-13590
j	-13591
ỵ	-13592
'	-13593
